{
  "version": "1.0",
  "truncation": null,
  "padding": null,
  "added_tokens": [
    {
      "id": 0,
      "content": "[PAD]",
      "single_word": false,
      "lstrip": false,
      "rstrip": false,
      "normalized": false,
      "special": true
    },
    {
      "id": 1,
      "content": "[UNK]",
      "single_word": false,
      "lstrip": false,
      "rstrip": false,
      "normalized": false,
      "special": true
    },
    {
      "id": 2,
      "content": "[CLS]",
      "single_word": false,
      "lstrip": false,
      "rstrip": false,
      "normalized": false,
      "special": true
    },
    {
      "id": 3,
      "content": "[SEP]",
      "single_word": false,
      "lstrip": false,
      "rstrip": false,
      "normalized": false,
      "special": true
    },
    {
      "id": 4,
      "content": "[MASK]",
      "single_word": false,
      "lstrip": false,
      "rstrip": false,
      "normalized": false,
      "special": true
    }
  ],
  "normalizer": {
    "type": "Sequence",
    "normalizers": [
      {
        "type": "NFKC"
      }
    ]
  },
  "pre_tokenizer": {
    "type": "Whitespace"
  },
  "post_processor": {
    "type": "TemplateProcessing",
    "single": [
      {
        "SpecialToken": {
          "id": "[CLS]",
          "type_id": 0
        }
      },
      {
        "Sequence": {
          "id": "A",
          "type_id": 0
        }
      },
      {
        "SpecialToken": {
          "id": "[SEP]",
          "type_id": 0
        }
      }
    ],
    "pair": [
      {
        "SpecialToken": {
          "id": "[CLS]",
          "type_id": 0
        }
      },
      {
        "Sequence": {
          "id": "A",
          "type_id": 0
        }
      },
      {
        "SpecialToken": {
          "id": "[SEP]",
          "type_id": 0
        }
      },
      {
        "Sequence": {
          "id": "B",
          "type_id": 1
        }
      },
      {
        "SpecialToken": {
          "id": "[SEP]",
          "type_id": 1
        }
      }
    ],
    "special_tokens": {
      "[CLS]": {
        "id": "[CLS]",
        "ids": [
          2
        ],
        "tokens": [
          "[CLS]"
        ]
      },
      "[SEP]": {
        "id": "[SEP]",
        "ids": [
          3
        ],
        "tokens": [
          "[SEP]"
        ]
      }
    }
  },
  "decoder": {
    "type": "ByteLevel",
    "add_prefix_space": true,
    "trim_offsets": true,
    "use_regex": true
  },
  "model": {
    "type": "BPE",
    "dropout": null,
    "unk_token": "[UNK]",
    "continuing_subword_prefix": null,
    "end_of_word_suffix": null,
    "fuse_unk": true,
    "byte_fallback": false,
    "ignore_merges": false,
    "vocab": {
      "[PAD]": 0,
      "[UNK]": 1,
      "[CLS]": 2,
      "[SEP]": 3,
      "[MASK]": 4,
      "!": 5,
      "\"": 6,
      "#": 7,
      "$": 8,
      "%": 9,
      "&": 10,
      "'": 11,
      "(": 12,
      ")": 13,
      "*": 14,
      "+": 15,
      ",": 16,
      "-": 17,
      ".": 18,
      "/": 19,
      "0": 20,
      "1": 21,
      "2": 22,
      "3": 23,
      "4": 24,
      "5": 25,
      "6": 26,
      "7": 27,
      "8": 28,
      "9": 29,
      ":": 30,
      ";": 31,
      "<": 32,
      "=": 33,
      ">": 34,
      "?": 35,
      "@": 36,
      "A": 37,
      "B": 38,
      "C": 39,
      "D": 40,
      "E": 41,
      "F": 42,
      "G": 43,
      "H": 44,
      "I": 45,
      "J": 46,
      "K": 47,
      "L": 48,
      "M": 49,
      "N": 50,
      "O": 51,
      "P": 52,
      "Q": 53,
      "R": 54,
      "S": 55,
      "T": 56,
      "U": 57,
      "V": 58,
      "W": 59,
      "X": 60,
      "Y": 61,
      "Z": 62,
      "[": 63,
      "\\": 64,
      "]": 65,
      "^": 66,
      "_": 67,
      "`": 68,
      "a": 69,
      "b": 70,
      "c": 71,
      "d": 72,
      "e": 73,
      "f": 74,
      "g": 75,
      "h": 76,
      "i": 77,
      "j": 78,
      "k": 79,
      "l": 80,
      "m": 81,
      "n": 82,
      "o": 83,
      "p": 84,
      "q": 85,
      "r": 86,
      "s": 87,
      "t": 88,
      "u": 89,
      "v": 90,
      "w": 91,
      "x": 92,
      "y": 93,
      "z": 94,
      "{": 95,
      "|": 96,
      "}": 97,
      "~": 98,
      "¡": 99,
      "¢": 100,
      "£": 101,
      "¤": 102,
      "¥": 103,
      "¦": 104,
      "§": 105,
      "¨": 106,
      "©": 107,
      "ª": 108,
      "«": 109,
      "¬": 110,
      "®": 111,
      "¯": 112,
      "°": 113,
      "±": 114,
      "²": 115,
      "³": 116,
      "´": 117,
      "µ": 118,
      "¶": 119,
      "·": 120,
      "¸": 121,
      "¹": 122,
      "º": 123,
      "»": 124,
      "¼": 125,
      "½": 126,
      "¾": 127,
      "¿": 128,
      "À": 129,
      "Á": 130,
      "Â": 131,
      "Ã": 132,
      "Ä": 133,
      "Å": 134,
      "Æ": 135,
      "Ç": 136,
      "È": 137,
      "É": 138,
      "Ê": 139,
      "Ë": 140,
      "Ì": 141,
      "Í": 142,
      "Î": 143,
      "Ï": 144,
      "Ð": 145,
      "Ñ": 146,
      "Ò": 147,
      "Ó": 148,
      "Ô": 149,
      "Õ": 150,
      "Ö": 151,
      "×": 152,
      "Ø": 153,
      "Ù": 154,
      "Ú": 155,
      "Û": 156,
      "Ü": 157,
      "Ý": 158,
      "Þ": 159,
      "ß": 160,
      "à": 161,
      "á": 162,
      "â": 163,
      "ã": 164,
      "ä": 165,
      "å": 166,
      "æ": 167,
      "ç": 168,
      "è": 169,
      "é": 170,
      "ê": 171,
      "ë": 172,
      "ì": 173,
      "í": 174,
      "î": 175,
      "ï": 176,
      "ð": 177,
      "ñ": 178,
      "ò": 179,
      "ó": 180,
      "ô": 181,
      "õ": 182,
      "ö": 183,
      "÷": 184,
      "ø": 185,
      "ù": 186,
      "ú": 187,
      "û": 188,
      "ü": 189,
      "ý": 190,
      "þ": 191,
      "ÿ": 192,
      "Ā": 193,
      "ā": 194,
      "Ă": 195,
      "ă": 196,
      "Ą": 197,
      "ą": 198,
      "Ć": 199,
      "ć": 200,
      "Ĉ": 201,
      "ĉ": 202,
      "Ċ": 203,
      "ċ": 204,
      "Č": 205,
      "č": 206,
      "Ď": 207,
      "ď": 208,
      "Đ": 209,
      "đ": 210,
      "Ē": 211,
      "ē": 212,
      "Ĕ": 213,
      "ĕ": 214,
      "Ė": 215,
      "ė": 216,
      "Ę": 217,
      "ę": 218,
      "Ě": 219,
      "ě": 220,
      "Ĝ": 221,
      "ĝ": 222,
      "Ğ": 223,
      "ğ": 224,
      "Ġ": 225,
      "ġ": 226,
      "Ģ": 227,
      "ģ": 228,
      "Ĥ": 229,
      "ĥ": 230,
      "Ħ": 231,
      "ħ": 232,
      "Ĩ": 233,
      "ĩ": 234,
      "Ī": 235,
      "ī": 236,
      "Ĭ": 237,
      "ĭ": 238,
      "Į": 239,
      "į": 240,
      "İ": 241,
      "ı": 242,
      "Ĳ": 243,
      "ĳ": 244,
      "Ĵ": 245,
      "ĵ": 246,
      "Ķ": 247,
      "ķ": 248,
      "ĸ": 249,
      "Ĺ": 250,
      "ĺ": 251,
      "Ļ": 252,
      "ļ": 253,
      "Ľ": 254,
      "ľ": 255,
      "Ŀ": 256,
      "ŀ": 257,
      "Ł": 258,
      "ł": 259,
      "Ń": 260,
      "00": 261,
      "0000": 262,
      "ff": 263,
      "->": 264,
      "0x": 265,
      "ax": 266,
      "te": 267,
      "rax": 268,
      "by": 269,
      "byte": 270,
      "(%": 271,
      ")[": 272,
      "0x0000": 273,
      "mo": 274,
      "mov": 275,
      "ffff": 276,
      "8byte": 277,
      "rs": 278,
      "dx": 279,
      "rb": 280,
      "r1": 281,
      "rsp": 282,
      "0x00007": 283,
      "rdx": 284,
      "ad": 285,
      "0xffff": 286,
      "0xffffff": 287,
      "add": 288,
      "eax": 289,
      "rbp": 290,
      "4byte": 291,
      "00000000": 292,
      "0x000000000000": 293,
      "mp": 294,
      "0x00000000000000": 295,
      "cmp": 296,
      "mm": 297,
      "xmm": 298,
      "di": 299,
      "cx": 300,
      "rbx": 301,
      "r12": 302,
      "jz": 303,
      "r8": 304,
      "jn": 305,
      "rcx": 306,
      "0xffffffc": 307,
      "sh": 308,
      "0x000000000000000": 309,
      "r10": 310,
      "st": 311,
      "xmm0": 312,
      "0x000000": 313,
      ",%": 314,
      "test": 315,
      "jnz": 316,
      "ea": 317,
      "de": 318,
      "1byte": 319,
      "lea": 320,
      "edx": 321,
      "cw": 322,
      "cwde": 323,
      "0x0": 324,
      "f8": 325,
      "0x00": 326,
      "rdi": 327,
      "0xfffffff8": 328,
      "0x0000000": 329,
      "movz": 330,
      "movzx": 331,
      "r10d": 332,
      "dl": 333,
      "rsi": 334,
      "sd": 335,
      "0xffffffcc": 336,
      "shl": 337,
      "58": 338,
      "r9": 339,
      "3d": 340,
      "40": 341,
      "0x00007b": 342,
      "0x00000001": 343,
      "op": 344,
      "a58": 345,
      "edi": 346,
      "0x08": 347,
      "be": 348,
      "18": 349,
      "e8": 350,
      "pu": 351,
      "ecx": 352,
      "(,%": 353,
      "47": 354,
      "r14": 355,
      "0x0000000000000003": 356,
      "r13": 357,
      "dil": 358,
      "movsd": 359,
      "re": 360,
      "push": 361,
      "r15": 362,
      "10": 363,
      "0x00007d": 364,
      "0x000074": 365,
      "xmm1": 366,
      "an": 367,
      "and": 368,
      "0x00000": 369,
      "c7": 370,
      "2a": 371,
      "38": 372,
      "70": 373,
      "d8": 374,
      "pop": 375,
      "55": 376,
      "90": 377,
      "0x0000000000000001": 378,
      "si": 379,
      "0xffffffc4": 380,
      "23": 381,
      "ac": 382,
      "or": 383,
      "28": 384,
      "xmm2": 385,
      "rel": 386,
      "1a": 387,
      "9e": 388,
      "6e": 389,
      "20": 390,
      "0x00007e": 391,
      "0x000077": 392,
      "0x000078": 393,
      "0x00007bf": 394,
      "0x000071": 395,
      "0x00007ac": 396,
      "34": 397,
      "esi": 398,
      "xor": 399,
      "2b": 400,
      "jnbe": 401,
      "0x10": 402,
      "0xffffffc8": 403,
      "ub": 404,
      "sub": 405,
      "2c": 406,
      "al": 407,
      "9e5": 408,
      "0xffffffe8": 409,
      "0x0000000000000070": 410,
      "0x00000023": 411,
      "73": 412,
      "d0": 413,
      "88": 414,
      "cb": 415,
      "50": 416,
      "16": 417,
      "r8d": 418,
      "54": 419,
      "shr": 420,
      "25": 421,
      "e0": 422,
      "94": 423,
      "64": 424,
      "0x0000000000000008": 425,
      "nop": 426,
      "fb": 427,
      "a9": 428,
      "a8": 429,
      "cl": 430,
      "ef": 431,
      "79": 432,
      "30": 433,
      "0x0000000000000018": 434,
      "r11": 435,
      "eb": 436,
      "a4": 437,
      "jmp": 438,
      "37": 439,
      "26": 440,
      "d4": 441,
      "c4": 442,
      "r9d": 443,
      "95": 444,
      "f1": 445,
      "fd": 446,
      "da": 447,
      "5c": 448,
      "0x000003": 449,
      "jl": 450,
      "0x0000000000000005": 451,
      "0xffffffd4": 452,
      "fe": 453,
      "80": 454,
      "7c": 455,
      "5f": 456,
      "29": 457,
      "24": 458,
      "ad0": 459,
      "638": 460,
      "bc": 461,
      "0x0000000000000026": 462,
      "694": 463,
      "62b": 464,
      "3d90": 465,
      "908": 466,
      "287": 467,
      "e854": 468,
      "2c5f": 469,
      "0x00007ad0": 470,
      "0x000073d90": 471,
      "0x00007e854": 472,
      "0x00007bc7": 473,
      "0x00007dd": 474,
      "0x00007dc7": 475,
      "0x00007495": 476,
      "0x00007e694": 477,
      "0x00007740": 478,
      "0x00007847": 479,
      "0x00007bf25": 480,
      "0x00007acf": 481,
      "0x00007e7": 482,
      "0x0000712a": 483,
      "0x000071908": 484,
      "0x0000755": 485,
      "0x00007638": 486,
      "0x000072c5f": 487,
      "0x00007b64": 488,
      "0x00007da9": 489,
      "0x00007455": 490,
      "0x0000741a": 491,
      "0x00007762b": 492,
      "0x00007837": 493,
      "0x00007bfcb": 494,
      "0x00007287": 495,
      "0x00007acd": 496,
      "0x0000000000000000": 497,
      "48": 498,
      "60": 499,
      "0x00007dd73": 500,
      "0x00007e7d8": 501,
      "0x00007638c": 502,
      "0x00007455c4": 503,
      "0x00007bc75c": 504,
      "0x00007acf79": 505,
      "140": 506,
      "0x00000000": 507,
      "0xffffffd8": 508,
      "0xffffffe0": 509,
      "0x20": 510,
      "380": 511,
      "747": 512,
      "40f": 513,
      "0x000074952a": 514,
      "cal": 515,
      "call": 516,
      "jbe": 517,
      "7cc": 518,
      "318": 519,
      "334": 520,
      "0x00007ad029": 521,
      "0x000073d90e": 522,
      "0x00007e8549": 523,
      "0x00007dc7747": 524,
      "0x0000774024": 525,
      "0x00007847380": 526,
      "0x00007bf25e": 527,
      "0x00007dd733d": 528,
      "0x000074952ab": 529,
      "0x0000712aa4": 530,
      "0x0000719086e": 531,
      "0x00007557cc": 532,
      "0x000072c5fad": 533,
      "0x00007b64be": 534,
      "0x00007da9a8": 535,
      "0x0000741af1": 536,
      "0x00007837de": 537,
      "0x00007638c2": 538,
      "0x00007287ef": 539,
      "0x00007acd6e": 540,
      "ebx": 541,
      "f0": 542,
      "ret": 543,
      "mu": 544,
      "mul": 545,
      "b0": 546,
      "68": 547,
      "0x00007e694fd": 548,
      "0x00007acf79f": 549,
      "0x00007762b88": 550,
      "0x00007b64be6": 551,
      "addsd": 552,
      "mulsd": 553,
      "a16": 554,
      "ta16": 555,
      "data16": 556,
      "0x00007455c4e": 557,
      "0x00007287ef3": 558,
      "98": 559,
      "46": 560,
      "dfe": 561,
      "0x0000712aa4a": 562,
      "0x18": 563,
      "r15d": 564,
      "1a58": 565,
      "fb40f": 566,
      "0x04": 567,
      "0x00007acd6e47": 568,
      "0x00007da9a82b": 569,
      "0x000002": 570,
      "0xffffffc0": 571,
      "16byte": 572,
      "0x00007dc77477": 573,
      "r14d": 574,
      "0x00007ad0297": 575,
      "0x3d": 576,
      "0x28": 577,
      "0x0000031": 578,
      "5a": 579,
      "78": 580,
      "movd": 581,
      "0x000077402446": 582,
      "0xffffffff": 583,
      "50b": 584,
      "2byte": 585,
      "ps": 586,
      "c8": 587,
      "pxor": 588,
      "0x02": 589,
      "0x68": 590,
      "0x00007e7d82": 591,
      "0x0000741af12c": 592,
      "0x00007e7d823d": 593,
      "0x01": 594,
      "ee": 595,
      "0x00007bf25e47": 596,
      "0x000073d90e34": 597,
      "19": 598,
      "17": 599,
      "0x0000000000000010": 600,
      ":(%": 601,
      "r12d": 602,
      "0x00007455c4e7": 603,
      "fc": 604,
      "6a": 605,
      "0x00007bfcbbc": 606,
      "0xd0": 607,
      "a00": 608,
      "0x00007e85493": 609,
      "0x30": 610,
      "0x0000031e": 611,
      "0x00000003": 612,
      "0x50": 613,
      "0xffffffbc": 614,
      "0x00007bfcbb": 615,
      "r13d": 616,
      "33": 617,
      "a0": 618,
      "0x00007837de7": 619,
      "0x00007bfcbbc7": 620,
      "0xffffffffffff": 621,
      "0x40": 622,
      "0x00000002": 623,
      "c0": 624,
      "0x00007557cc17": 625,
      "0x00007762b88d": 626,
      "0x00007e694fd6": 627,
      "0x00007e854934": 628,
      "0x00007bc75cee": 629,
      "0xe8": 630,
      "9d0": 631,
      "pd": 632,
      "0x0000000000000098": 633,
      "0x00007638c21a": 634,
      "0x00007bc75cef": 635,
      "0x00007bfcbbc8": 636,
      "0x00007ad02974": 637,
      "0x0000000000000004": 638,
      "ebp": 639,
      "eq": 640,
      "pcmp": 641,
      "eqb": 642,
      "pcmpeqb": 643,
      "a3": 644,
      "0x00007dd733db": 645,
      "0x00007557cc18": 646,
      "14": 647,
      "0x00007e7d823": 648,
      "0x00007837de80": 649,
      "0x00007847380d": 650,
      "0xffffffffffffff": 651,
      "0x00007e854935": 652,
      "fs": 653,
      "0x00007e694fd7": 654,
      "19e5": 655,
      "0x000004": 656,
      "0x00007762b88e": 657,
      "2a58": 658,
      "fff": 659,
      "et": 660,
      "set": 661,
      "0x00007638c21": 662,
      "dq": 663,
      "es": 664,
      "os": 665,
      "stos": 666,
      "rep": 667,
      "3f": 668,
      "mova": 669,
      "movaps": 670,
      "ca58": 671,
      "84": 672,
      "3a58": 673,
      "9a58": 674,
      "aa58": 675,
      "sil": 676,
      "0x00007acf79f60": 677,
      "0x000072c5fad94": 678,
      "0x00007b64be6cb": 679,
      "0x0000712aa4a79": 680,
      "0x00007557cc180": 681,
      "0x70": 682,
      "0x00007638c21a4": 683,
      "0x0000719086e48": 684,
      "0x00007287ef3c8": 685,
      "0x000072c5fad8": 686,
      "0x000077402446f": 687,
      "0x0000000f": 688,
      "ck": 689,
      "0x00000030": 690,
      "53": 691,
      "5b": 692,
      "0x84": 693,
      "setz": 694,
      "movs": 695,
      "np": 696,
      "punp": 697,
      "ckl": 698,
      "punpckl": 699,
      "movsx": 700,
      "0x000000000000003f": 701,
      "4b": 702,
      "0x00007847380c": 703,
      "0xffffff88": 704,
      "0x00000008": 705,
      "36": 706,
      "0x00007dc77477d": 707,
      "0x00007455c4e77": 708,
      "0x0000741af12": 709,
      "0x000074952ab5a": 710,
      "0x38": 711,
      "f4": 712,
      "0x00007fff": 713,
      "280": 714,
      "movdq": 715,
      "0x00000004": 716,
      "0x00007455c4e6": 717,
      "0x00007b64be6c": 718,
      "ffb": 719,
      "qdq": 720,
      "punpcklqdq": 721,
      "0x05": 722,
      "0x00007837de7f": 723,
      "0x00007e7d823c": 724,
      "9b0": 725,
      "0x00007dd733da": 726,
      "0x000074952ab4": 727,
      "0x0000719086e4": 728,
      "0x00007287ef3c": 729,
      "0x000073d90e3": 730,
      "aa": 731,
      "bd": 732,
      "1d": 733,
      "f9": 734,
      "movsxd": 735,
      "0x48": 736,
      "0x60": 737,
      "jnb": 738,
      "6140": 739,
      "movdqa": 740,
      "1f": 741,
      "movh": 742,
      "kb": 743,
      "ms": 744,
      "pmov": 745,
      "mskb": 746,
      "pmovmskb": 747,
      "0x00007ad02973": 748,
      "0x06": 749,
      "xmm3": 750,
      "cmov": 751,
      "0xffffff78": 752,
      "r11d": 753,
      "0x00007740244": 754,
      "120": 755,
      "lpd": 756,
      "movlpd": 757,
      "movhpd": 758,
      "0xd8": 759,
      "ad8": 760,
      "sa": 761,
      "sar": 762,
      "0xfffffffffffffff0": 763,
      "01": 764,
      "jb": 765,
      "0x0000000000000006": 766,
      "0x00007557": 767,
      "0x0000000000000030": 768,
      "0x00007638c219": 769,
      "ups": 770,
      "movups": 771,
      "0x000002f8": 772,
      "0x88": 773,
      "21": 774,
      "550": 775,
      "0x0a": 776,
      "0x00000300": 777,
      "a5": 778,
      "ae0": 779,
      "ffb40f": 780,
      "0x000002f4": 781,
      "b8": 782,
      "ch": 783,
      "0x00000025": 784,
      "0x000002e8": 785,
      "2sd": 786,
      "cv": 787,
      "tsi": 788,
      "0x000002fc": 789,
      "cvtsi": 790,
      "cvtsi2sd": 791,
      "478": 792,
      "0x00000310": 793,
      "psub": 794,
      "0x0000ffff": 795,
      "0x03": 796,
      "psubb": 797,
      "780": 798,
      "0x00007bf25e46": 799,
      "0x0000712aa4a6": 800,
      "220": 801,
      "bs": 802,
      "r8l": 803,
      "0x0000000000000038": 804,
      "1c": 805,
      "0xffffffd0": 806,
      "5a0": 807,
      "0xfffffff0": 808,
      "0x0000000000000020": 809,
      "bsf": 810,
      "nz": 811,
      "0x00007acd6e47ca58": 812,
      "0x00007da9a82bca58": 813,
      "0x0000741af12caa58": 814,
      "0x00007e7d823daa58": 815,
      "0x00007bf25e479a58": 816,
      "0x000073d90e349a58": 817,
      "0x00007bc75cef2a58": 818,
      "0x00007bfcbbc83a58": 819,
      "0x00007ad029743a58": 820,
      "0x00007dd733db2a58": 821,
      "0x00007837de801a58": 822,
      "0x00007847380d1a58": 823,
      "0x00007e8549351a58": 824,
      "0x00007e694fd71a58": 825,
      "0x00007762b88e1a58": 826,
      "0x00007acf79f60a58": 827,
      "0x000072c5fad94a58": 828,
      "0x00007b64be6cba58": 829,
      "0x0000712aa4a79a58": 830,
      "0x00007557cc180a58": 831,
      "0x00007638c21a4a58": 832,
      "0x0000719086e48a58": 833,
      "0x00007287ef3c8a58": 834,
      "0x000077402446fa58": 835,
      "0x00007dc77477da58": 836,
      "0x00007455c4e77a58": 837,
      "0x000074952ab5aa58": 838,
      "0xffffff48": 839,
      "cdfe": 840,
      "0xfffffb": 841,
      "0x0000719086e3": 842,
      "0x0000000000000002": 843,
      "29e5": 844,
      "js": 845,
      "0x0c": 846,
      "e4": 847,
      "b6": 848,
      "0x00007b64be6b": 849,
      "0x0000031c": 850,
      "0x00000410": 851,
      "533": 852,
      "0x00007bf25e4": 853,
      "0x00007acd6e47c": 854,
      "0x00007bf25e479": 855,
      "0x000073d90e349": 856,
      "0x00007da9a82bc": 857,
      "3fb40f": 858,
      "39e5": 859,
      "a9e5": 860,
      "27": 861,
      "550b": 862,
      "0x00007b64b": 863,
      "720": 864,
      "0x00007847380cb": 865,
      "0x00007ad02973d": 866,
      "0x00007837de7fb": 867,
      "0x000008": 868,
      "0x00007dd733dac": 869,
      "0x00007ad028": 870,
      "0x00007dc773": 871,
      "0x0000784737": 872,
      "0x00007acd6": 873,
      "0x00007da9a": 874,
      "0x0000741af0": 875,
      "0x00007837d": 876,
      "0x00007557cb": 877,
      "c7d": 878,
      "da8": 879,
      "641": 880,
      "0x000074952ab54": 881,
      "0x00007e694fd6b": 882,
      "0x00007e854934b": 883,
      "0x00007762b88db": 884,
      "0x000072c5fad88": 885,
      "0x00007acd6e470": 886,
      "0x00007da9a82b0": 887,
      "0x000073d90e33d": 888,
      "0x0000741af12be": 889,
      "74": 890,
      "d6": 891,
      "0x0000712aa4a73": 892,
      "0x58": 893,
      "0x00007e7d823d4": 894,
      "0x0000741af12c4": 895,
      "xmm4": 896,
      "0xffffff68": 897,
      "f140": 898,
      "1a00": 899,
      "3a": 900,
      "2a0": 901,
      "6c": 902,
      "19d0": 903,
      "214": 904,
      "19da8": 905,
      "0x00007bc75ceec": 906,
      "0x0000774024469": 907,
      "0x00007638c219e": 908,
      "0x000073d90e33": 909,
      "ec": 910,
      "0x0000741af12b": 911,
      "1a3": 912,
      "0x00007bfcbbc7d": 913,
      "0x00007acd6e476": 914,
      "0x00007da9a82b6": 915,
      "d70": 916,
      "0x00007638c2198": 917,
      "0x5c": 918,
      "0x09": 919,
      "0x00007bc75cee6": 920,
      "0x00007dd733da6": 921,
      "0x00007acf79f5a": 922,
      "2d": 923,
      "0x00007455c4e6b": 924,
      "0xffffff60": 925,
      "52": 926,
      "0x00007acf79f54": 927,
      "0x00007837de8": 928,
      "xch": 929,
      "xchg": 930,
      "1a70": 931,
      "0x00007e7d823ce": 932,
      "0x000074952ab4e": 933,
      "0x000072c5fad8e": 934,
      "f3": 935,
      "000": 936,
      "0xffffff80": 937,
      "0x00000120": 938,
      "cmovnz": 939,
      "0x00007bf25e473": 940,
      "0x000073d90e343": 941,
      "0xff": 942,
      "0x0000000000000007": 943,
      "0xffffff70": 944,
      "0xfff1": 945,
      "76": 946,
      "1fb40f": 947,
      "0x00007e8548": 948,
      "0x0000712aa3": 949,
      "0x00007287ee": 950,
      "0x00007287ef3bc": 951,
      "348": 952,
      "0x00007455c4e71": 953,
      "0x0000719086": 954,
      "7e": 955,
      "0x00007bf25e46d": 956,
      "0x0000712aa4a6d": 957,
      "ae8": 958,
      "4c": 959,
      "238": 960,
      "0x0000000000000009": 961,
      "0x00007e694f0": 962,
      "0x00007740238": 963,
      "0x00007bf25d8": 964,
      "0x000072c5fa0": 965,
      "0x00007bfcbb0": 966,
      "0x00007dd7330": 967,
      "0x00007acd6d8": 968,
      "99": 969,
      "0x00007b64be6c5": 970,
      "0x00007557cc174": 971,
      "0xffffff58": 972,
      "0x00007e7d81a": 973,
      "51a": 974,
      "0xfffffffffffffff8": 975,
      "0x0000719086e3c": 976,
      "0x000077402447": 977,
      "403": 978,
      "0x00007762b7c": 979,
      "150": 980,
      "331": 981,
      "0x14": 982,
      "div": 983,
      "340": 984,
      "a44": 985,
      "0x1c": 986,
      "72": 987,
      "ac0": 988,
      "0x000000000000001f": 989,
      "0x0f": 990,
      "0x00007557cc17a": 991,
      "a40": 992,
      "ac80": 993,
      "fb0": 994,
      "ldq": 995,
      "0xe0": 996,
      "0x00000860": 997,
      "b4": 998,
      "0xffffffef": 999,
      "22": 1000,
      "4b6": 1001,
      "0x0000000000000": 1002,
      "0x0000000000000025": 1003,
      "fd8": 1004,
      "0x00007b64be6bf": 1005,
      "ce": 1006,
      "0x00007638c14": 1007,
      "0xf8": 1008,
      "0x0000030": 1009,
      "1a3c8": 1010,
      "4b7": 1011,
      "4e": 1012,
      "0xf0": 1013,
      "56": 1014,
      "0x98": 1015,
      "0x00000308": 1016,
      "0x00007847374": 1017,
      "0x00007557cb4": 1018,
      "0x00000348": 1019,
      "0x00007b64bda": 1020,
      "0x00007837dda": 1021,
      "0x0000719086e3d": 1022,
      "0x0000712aa4a6e": 1023,
      "0x00007bf25e46e": 1024,
      "1d0": 1025,
      "0x000003e4": 1026,
      "0xfffffb98": 1027,
      "0x00007dc774771": 1028,
      "7140": 1029,
      "1140": 1030,
      "9140": 1031,
      "0x0000749529": 1032,
      "0x000074952ab5": 1033,
      "b00": 1034,
      "b9": 1035,
      "0x6": 1036,
      "18a": 1037,
      "dec": 1038,
      "0x0000150": 1039,
      "0x00001505": 1040,
      "0x0000719086e423": 1041,
      "0x00007287ef3c23": 1042,
      "558": 1043,
      "0x00007acf79f55": 1044,
      "0x00007b64be6c0": 1045,
      "0x00007ad029738": 1046,
      "0x00007dc7747773": 1047,
      "0x00007acf7": 1048,
      "2af": 1049,
      "23e": 1050,
      "0x00007bfcbbc77": 1051,
      "0x00007ad029737": 1052,
      "r9l": 1053,
      "0x0000080": 1054,
      "d5": 1055,
      "0x00000804": 1056,
      "0xffffff50": 1057,
      "0x00000418": 1058,
      "3dfe": 1059,
      "fb403": 1060,
      "fb331": 1061,
      "518": 1062,
      "5dfe": 1063,
      "2a00": 1064,
      "0x0000774024464": 1065,
      "7dfe": 1066,
      "fdfe": 1067,
      "edfe": 1068,
      "4dfe": 1069,
      "0x0000712aa4a8": 1070,
      "66": 1071,
      "0x00007acd6e48": 1072,
      "0xfffffd": 1073,
      "0x00000007": 1074,
      "69": 1075,
      "0x00007287ef3d": 1076,
      "0x00007acd6e4": 1077,
      "0xfffffff9": 1078,
      "0xffffffb8": 1079,
      "0x000000000000001d": 1080,
      "jnl": 1081,
      "0x00000420": 1082,
      "a9d0": 1083,
      "640": 1084,
      "2c0": 1085,
      "78d": 1086,
      "cmovz": 1087,
      "0x00007455c4e8": 1088,
      "0x00007bf25e48": 1089,
      "1df": 1090,
      "2f": 1091,
      "737": 1092,
      "0x78": 1093,
      "240": 1094,
      "0x00007287ef3bd": 1095,
      "0x00007bfcbbc78": 1096,
      "0x00007455c4e6c": 1097,
      "0x000073d90e33e": 1098,
      "a54": 1099,
      "362": 1100,
      "fd1": 1101,
      "2a8": 1102,
      "0x00007da9a7": 1103,
      "7fb40f": 1104,
      "bfb40f": 1105,
      "fb4b7": 1106,
      "0x0000741af12ca9e5": 1107,
      "0x00007e7d823da9e5": 1108,
      "0x00007bc75cef29e5": 1109,
      "0x00007bfcbbc839e5": 1110,
      "0x00007ad0297439e5": 1111,
      "0x00007dd733db29e5": 1112,
      "0x00007837de8019e5": 1113,
      "0x00007847380d19e5": 1114,
      "0x00007e85493519e5": 1115,
      "0x00007e694fd719e5": 1116,
      "0x00007762b88e19e5": 1117,
      "0x00007acf79f609e5": 1118,
      "0x000072c5fad949e5": 1119,
      "0x00007b64be6cb9e5": 1120,
      "0x0000712aa4a799e5": 1121,
      "0x00007557cc1809e5": 1122,
      "0x00007638c21a49e5": 1123,
      "0x0000719086e489e5": 1124,
      "0x00007287ef3c89e5": 1125,
      "0x000077402446f9e5": 1126,
      "0x00007dc77477d9e5": 1127,
      "0x00007455c4e779e5": 1128,
      "0x000074952ab5a9e5": 1129,
      "0x00007acd6e47c9e5": 1130,
      "0x00007bf25e4799e5": 1131,
      "0x000073d90e3499e5": 1132,
      "0x00007da9a82bc9e5": 1133,
      "360": 1134,
      "0x00000005": 1135,
      "1ac80": 1136,
      "a4495": 1137,
      "0x00007da9a82c": 1138,
      "366": 1139,
      "0x0000000000000022": 1140,
      "0x000073d90d": 1141,
      "19e": 1142,
      "jnle": 1143,
      "93": 1144,
      "a42": 1145,
      "3a8": 1146,
      "2a3": 1147,
      "0x17": 1148,
      "0x0000712aa3ea": 1149,
      "0x0000749529ea": 1150,
      "eg": 1151,
      "neg": 1152,
      "200": 1153,
      "lldq": 1154,
      "pslldq": 1155,
      "9fc": 1156,
      "0x0000774024463": 1157,
      "474e": 1158,
      "0x6474e": 1159,
      "44": 1160,
      "0x00007ad029743": 1161,
      "0x00007bfcbbc83": 1162,
      "45": 1163,
      "0x24": 1164,
      "0xfffffffe": 1165,
      "2a48": 1166,
      "0x00007dc77478": 1167,
      "2ff": 1168,
      "9c": 1169,
      "0x00007557cc175": 1170,
      "ffd": 1171,
      "500": 1172,
      "cpu": 1173,
      "id": 1174,
      "cpuid": 1175,
      "0x0000712aa4a7": 1176,
      "310": 1177,
      "9c4": 1178,
      "0x00007acf79f5": 1179,
      "0x00007455c42a": 1180,
      "0x00007bc75c2a": 1181,
      "0x00007acf792a": 1182,
      "0x00007190862a": 1183,
      "274b": 1184,
      "0x00007b64be6d": 1185,
      "2a38": 1186,
      "888": 1187,
      "a1a70": 1188,
      "0x00007acf79f6": 1189,
      "0x00007dc774772": 1190,
      "33d": 1191,
      "ab0": 1192,
      "a98": 1193,
      "0x00007b64be6e": 1194,
      "3f0": 1195,
      "0x00007287ef3b": 1196,
      "2b0": 1197,
      "880": 1198,
      "358": 1199,
      "bdd": 1200,
      "0x4c": 1201,
      "3b0": 1202,
      "2de": 1203,
      "21500": 1204,
      "6b0": 1205,
      "390": 1206,
      "72f9": 1207,
      "d7e": 1208,
      "0x00000047": 1209,
      "0x00000888": 1210,
      "0x00007ad025": 1211,
      "0x000073d909": 1212,
      "0x00007e8544": 1213,
      "0x00007bc758": 1214,
      "0x00007dd72f9": 1215,
      "0x00007dc770": 1216,
      "0x0000749526": 1217,
      "0x00007e694b9": 1218,
      "0x0000774020": 1219,
      "0x00007bf25a": 1220,
      "0x00007e7d7e": 1221,
      "0x0000712aa0": 1222,
      "0x0000719082b": 1223,
      "0x000072c5f69": 1224,
      "0x00007da9a3": 1225,
      "0x00007455c0": 1226,
      "0x0000741aec": 1227,
      "0x00007837da": 1228,
      "0x00007bfcb79": 1229,
      "0x00007287ea": 1230,
      "0x00007acd6a": 1231,
      "0x00007b64ba3": 1232,
      "214fc": 1233,
      "0x00007acf75b": 1234,
      "0x0000784733d": 1235,
      "0x00007638bdd": 1236,
      "0x00007557c7d": 1237,
      "0x00007762b45": 1238,
      "0x80": 1239,
      "0x0000741af06a": 1240,
      "0x00007e85486a": 1241,
      "0x00007287ee6a": 1242,
      "0x00007da9a76a": 1243,
      "0x000073d90d6a": 1244,
      "59": 1245,
      "0x00007557cc1": 1246,
      "0x0001": 1247,
      "370": 1248,
      "27e8": 1249,
      "a50": 1250,
      "5d": 1251,
      "0xfffffffc": 1252,
      "cmovb": 1253,
      "250": 1254,
      "29d0": 1255,
      "aa00": 1256,
      "624": 1257,
      "b58": 1258,
      "dc": 1259,
      "1a4": 1260,
      "1e": 1261,
      "0x00007b64bd": 1262,
      "jle": 1263,
      "setnz": 1264,
      "6cd": 1265,
      "9ed": 1266,
      "f7": 1267,
      "278": 1268,
      "a46cd": 1269,
      "188": 1270,
      "0x00007acf79f8": 1271,
      "890": 1272,
      "0x00007762b890": 1273,
      "bl": 1274,
      "51": 1275,
      "11": 1276,
      "0x0000712aa4a9": 1277,
      "movdqu": 1278,
      "2e": 1279,
      "9f": 1280,
      "d28": 1281,
      "0x00007e694fd8": 1282,
      "0x00007bc75cf0": 1283,
      "7ffff": 1284,
      "008": 1285,
      "0x00007ad028aa": 1286,
      "0x00007dc773aa": 1287,
      "0xfffffe": 1288,
      "0x0e": 1289,
      "0x000001": 1290,
      "0x0000031d": 1291,
      "77": 1292,
      "32": 1293,
      "180": 1294,
      "0xfffffffffffffffd": 1295,
      "0x000073d90e36": 1296,
      "0x00000fff": 1297,
      "0x000000007ffff": 1298,
      "cmovn": 1299,
      "0x000000007ffffffd": 1300,
      "0x00007acd6e471140": 1301,
      "0x00007da9a82b1140": 1302,
      "0x00007762b88d6140": 1303,
      "0x00007e694fd66140": 1304,
      "0x00007e8549346140": 1305,
      "0x00007bc75cee7140": 1306,
      "0x000072c5fad89140": 1307,
      "0x00007847380c6140": 1308,
      "0x00007837de7f6140": 1309,
      "0x00007e7d823cf140": 1310,
      "0x00007dd733da7140": 1311,
      "0x000074952ab4f140": 1312,
      "0x00007638c2199140": 1313,
      "0x0000741af12bf140": 1314,
      "0x0000719086e3d140": 1315,
      "0x0000712aa4a6e140": 1316,
      "0x00007bf25e46e140": 1317,
      "0x00007acf79f55140": 1318,
      "0x00007b64be6c0140": 1319,
      "0x00007ad029738140": 1320,
      "0x0000774024464140": 1321,
      "0x00007287ef3bd140": 1322,
      "0x00007bfcbbc78140": 1323,
      "0x00007455c4e6c140": 1324,
      "0x000073d90e33e140": 1325,
      "0x00007557cc175140": 1326,
      "0x00007dc774772140": 1327,
      "a6": 1328,
      "ah": 1329,
      "0xffffff20": 1330,
      "0x000072c5fad9": 1331,
      "489": 1332,
      "eb0": 1333,
      "0x00007da9a82d": 1334,
      "cf": 1335,
      "por": 1336,
      "0x00000020": 1337,
      "0x00007bc75cf1": 1338,
      "0x000074952ab55": 1339,
      "0x00007dc774778": 1340,
      "ed": 1341,
      "0x00007acf79f5b": 1342,
      "adfe": 1343,
      "fa8": 1344,
      "0x00007bc75ceed": 1345,
      "0x000077402449": 1346,
      "0x00007b64be6c6": 1347,
      "0x00007557cc17b": 1348,
      "0x0000741af12d": 1349,
      "0x00007837de7fc": 1350,
      "0x0000712aa4a74": 1351,
      "2dfe": 1352,
      "0x00007dd733dadd": 1353,
      "6e6": 1354,
      "0x00007acd6e477dfe": 1355,
      "0x00007da9a82b7dfe": 1356,
      "0x000077402446adfe": 1357,
      "0x0000741af12c5dfe": 1358,
      "0x00007e7d823d5dfe": 1359,
      "0x00007bf25e474dfe": 1360,
      "0x000073d90e344dfe": 1361,
      "0x00007455c4e72dfe": 1362,
      "0x00007bfcbbc7edfe": 1363,
      "0x00007762b88dcdfe": 1364,
      "0x00007e694fd6cdfe": 1365,
      "0x00007e854934cdfe": 1366,
      "0x000072c5fad8fdfe": 1367,
      "0x00007847380ccdfe": 1368,
      "0x0000719086e43dfe": 1369,
      "0x00007ad02973edfe": 1370,
      "0x00007638c219fdfe": 1371,
      "0x00007847380cb318": 1372,
      "0x00007847380cb334": 1373,
      "0x00007ad02973d318": 1374,
      "0x00007ad02973d334": 1375,
      "0x00007837de7fb318": 1376,
      "0x00007dd733dac318": 1377,
      "0x00007dd733dac334": 1378,
      "0x000074952ab54318": 1379,
      "0x000074952ab54334": 1380,
      "0x00007e694fd6b318": 1381,
      "0x00007e694fd6b334": 1382,
      "0x00007e854934b318": 1383,
      "0x00007e854934b334": 1384,
      "0x00007762b88db318": 1385,
      "0x0000712aa4a73318": 1386,
      "0x0000712aa4a73334": 1387,
      "0x00007e7d823d4318": 1388,
      "0x00007e7d823d4334": 1389,
      "0x0000741af12c4318": 1390,
      "0x00007bc75ceec318": 1391,
      "0x00007bc75ceec334": 1392,
      "0x0000774024469318": 1393,
      "0x0000774024469334": 1394,
      "0x00007638c219e318": 1395,
      "0x00007bfcbbc7d318": 1396,
      "0x00007acd6e476318": 1397,
      "0x00007acd6e476334": 1398,
      "0x00007da9a82b6318": 1399,
      "0x00007acf79f5a318": 1400,
      "0x00007acf79f5a334": 1401,
      "0x000072c5fad8e318": 1402,
      "0x00007bf25e473318": 1403,
      "0x00007bf25e473334": 1404,
      "0x000073d90e343318": 1405,
      "0x000073d90e343334": 1406,
      "0x00007455c4e71318": 1407,
      "0x00007b64be6c5318": 1408,
      "0x00007557cc17a318": 1409,
      "0x0000719086e42318": 1410,
      "0x0000719086e42334": 1411,
      "0x00007287ef3c2318": 1412,
      "0x00007287ef3c2334": 1413,
      "0x00007dc774777318": 1414,
      "0x00007dc774777334": 1415,
      "0x000074952ab55dfe": 1416,
      "0x00007dc774778dfe": 1417,
      "0x00007acf79f5bdfe": 1418,
      "0x00007bc75ceeddfe": 1419,
      "0x00007b64be6c6dfe": 1420,
      "0x00007557cc17bdfe": 1421,
      "0x00007837de7fcdfe": 1422,
      "0x0000712aa4a74dfe": 1423,
      "0x00007dd733daddfe": 1424,
      "0x00007dd733dc": 1425,
      "0x00007287ef3c3dfe": 1426,
      "0x00007837de7fb334": 1427,
      "0x00007762b88db334": 1428,
      "0x0000741af12c4334": 1429,
      "0x00007638c219e334": 1430,
      "0x00007bfcbbc7d334": 1431,
      "0x00007da9a82b6334": 1432,
      "0x000072c5fad8e334": 1433,
      "0x00007455c4e71334": 1434,
      "0x00007b64be6c5334": 1435,
      "0x00007557cc17a334": 1436,
      "ee8": 1437,
      "a3b": 1438,
      "0x00000006": 1439,
      "02": 1440,
      "12": 1441,
      "de8": 1442,
      "0x000074952ab6": 1443,
      "644": 1444,
      "5780": 1445,
      "a20": 1446,
      "0x00007dc774777": 1447,
      "0x000073d90d6": 1448,
      "0x0000000000000028": 1449,
      "0x000000000000000f": 1450,
      "c70": 1451,
      "3d0": 1452,
      "0x00007bf25e49": 1453,
      "3d8": 1454,
      "0x00007847380e": 1455,
      "96": 1456,
      "a48": 1457,
      "d09": 1458,
      "dh": 1459,
      "214d8": 1460,
      "0x00000000000003": 1461,
      "802": 1462,
      "0x00007ad028a": 1463,
      "0x00007dc773a": 1464,
      "0x00007ad0253fb40f": 1465,
      "0x000073d909ffb40f": 1466,
      "0x00007e8544ffb40f": 1467,
      "0x00007bc758bfb40f": 1468,
      "0x00007dd72f9fb40f": 1469,
      "0x00007dc7703fb40f": 1470,
      "0x00007495267fb40f": 1471,
      "0x00007e694b9fb40f": 1472,
      "0x00007740201fb40f": 1473,
      "0x00007bf25a1fb40f": 1474,
      "0x00007e7d7e3fb40f": 1475,
      "0x0000712aa07fb40f": 1476,
      "0x0000719082bfb40f": 1477,
      "0x000072c5f69fb40f": 1478,
      "0x00007da9a3ffb40f": 1479,
      "0x00007455c0bfb40f": 1480,
      "0x0000741aecffb40f": 1481,
      "0x00007837da3fb40f": 1482,
      "0x00007bfcb79fb40f": 1483,
      "0x00007287eaffb40f": 1484,
      "0x00007acd6a1fb40f": 1485,
      "0x00007b64ba3fb40f": 1486,
      "0x00007acf75bfb40f": 1487,
      "0x0000784733dfb40f": 1488,
      "0x00007638bddfb40f": 1489,
      "0x00007557c7dfb40f": 1490,
      "0x00007762b45fb40f": 1491,
      "dd8": 1492,
      "0x00007da9a76": 1493,
      "ceb0": 1494,
      "0x7c": 1495,
      "0xffffff90": 1496,
      "0x00007ad02976": 1497,
      "0x0000741af06": 1498,
      "0x00007e85486": 1499,
      "0x00007287ee6": 1500,
      "a06": 1501,
      "b70": 1502,
      "230": 1503,
      "0x000000000000000c": 1504,
      "0x0000000000000fff": 1505,
      "cmovnbe": 1506,
      "a51a": 1507,
      "cd": 1508,
      "55a0": 1509,
      "sy": 1510,
      "scall": 1511,
      "0x00007455c4e779": 1512,
      "0x6474e55": 1513,
      "syscall": 1514,
      "0xfffff": 1515,
      "9ad": 1516,
      "0x00007557cc1a": 1517,
      "ymm": 1518,
      "2c3": 1519,
      "aaaa": 1520,
      "0x00000000000003ff": 1521,
      "fc0": 1522,
      "0x0000774023": 1523,
      "3b4": 1524,
      "9d5": 1525,
      "0x000072c5fa": 1526,
      "54b6": 1527,
      "5720": 1528,
      "5533": 1529,
      "253": 1530,
      "178": 1531,
      "5478": 1532,
      "a6a": 1533,
      "bt": 1534,
      "0x0000007c": 1535,
      "0x6474e550": 1536,
      "0x00007e854936": 1537,
      "0x00007dc77477da": 1538,
      "3d60": 1539,
      "a51": 1540,
      "a51a2": 1541,
      "e74": 1542,
      "0xffffffffffffffc0": 1543,
      "0xb8": 1544,
      "0xffffff98": 1545,
      "0x0000001f": 1546,
      "214e8": 1547,
      "19ec8": 1548,
      "bae0": 1549,
      "5300": 1550,
      "c04": 1551,
      "0x00007638c21c": 1552,
      "a2a48": 1553,
      "a274b": 1554,
      "a2a38": 1555,
      "4c4": 1556,
      "4a9": 1557,
      "000000": 1558,
      "0x0000006e": 1559,
      "0x0000005b": 1560,
      "0x00000077": 1561,
      "0x000072c5fadb": 1562,
      "d10": 1563,
      "0x00007e694f": 1564,
      "d1f": 1565,
      "1000": 1566,
      "0x00007e7d823e": 1567,
      "0x00007acd6e49": 1568,
      "fc8": 1569,
      "26a0": 1570,
      "2de0": 1571,
      "imul": 1572,
      "0x0000000a": 1573,
      "1a3d8": 1574,
      "0xffffffffffffffff": 1575,
      "0x0000086c": 1576,
      "2fc8": 1577,
      "48b": 1578,
      "51a2": 1579,
      "5c4": 1580,
      "a30": 1581,
      "0x00007762b88d550b": 1582,
      "0x00007e694fd6550b": 1583,
      "0x00007e854934550b": 1584,
      "0x00007847380c550b": 1585,
      "0x00007837de7f550b": 1586,
      "0x000072c5fad8850b": 1587,
      "0x00007acd6e47050b": 1588,
      "0x00007da9a82b050b": 1589,
      "0x000073d90e33d50b": 1590,
      "0x0000741af12be50b": 1591,
      "0x00007638c219850b": 1592,
      "0x00007bc75cee650b": 1593,
      "0x00007dd733da650b": 1594,
      "0x00007455c4e6b50b": 1595,
      "0x00007acf79f5450b": 1596,
      "0x00007e7d823ce50b": 1597,
      "0x000074952ab4e50b": 1598,
      "0x00007287ef3bc50b": 1599,
      "0x00007bf25e46d50b": 1600,
      "0x0000712aa4a6d50b": 1601,
      "0x00007557cc17450b": 1602,
      "0x0000719086e3c50b": 1603,
      "0x00007b64be6bf50b": 1604,
      "0x00007dc77477150b": 1605,
      "0x00007bfcbbc7750b": 1606,
      "0x00007ad02973750b": 1607,
      "0x000077402446350b": 1608,
      "0x000001a4": 1609,
      "bb": 1610,
      "1280": 1611,
      "15": 1612,
      "0x000073d90d8": 1613,
      "0x00007e85488": 1614,
      "0x00007bc75c4": 1615,
      "0x00007bf25da": 1616,
      "0x00007ad028c": 1617,
      "0x00007dc773c": 1618,
      "0x00007847376": 1619,
      "0x00007acd6da": 1620,
      "0x00007acf794": 1621,
      "0x0000712aa40": 1622,
      "0x00007762b7e": 1623,
      "0x00007287ee8": 1624,
      "0x00007e7d81c": 1625,
      "0x00007638c16": 1626,
      "0x00007455c44": 1627,
      "0x00007da9a78": 1628,
      "0x0000741af08": 1629,
      "0x00007837ddc": 1630,
      "0x00007557cb6": 1631,
      "0x00007b64bdc": 1632,
      "0x00007bfcbbca": 1633,
      "0x00007762b88d6": 1634,
      "0x00007e694fd66": 1635,
      "0x00007e8549346": 1636,
      "0x00007847380c6": 1637,
      "0x00007837de7f6": 1638,
      "0x000072c5fad89": 1639,
      "0x00007638c2199": 1640,
      "ab": 1641,
      "0x00007acd6e471": 1642,
      "0x00007da9a82b1": 1643,
      "f91": 1644,
      "800": 1645,
      "0x0000774023a": 1646,
      "2640": 1647,
      "af8": 1648,
      "2cd": 1649,
      "a27e8": 1650,
      "c9": 1651,
      "0xffffff30": 1652,
      "0xffffffb0": 1653,
      "0x00007da9a82": 1654,
      "1b": 1655,
      "cc": 1656,
      "3c": 1657,
      "8b": 1658,
      "0xfffffffffffff": 1659,
      "rldq": 1660,
      "0xffffff38": 1661,
      "psrldq": 1662,
      "0x00007dd733dd4": 1663,
      "0x0000741af12ca9d0": 1664,
      "0x0000741af12caa00": 1665,
      "0x00007e7d823da9d0": 1666,
      "0x00007e7d823daa00": 1667,
      "0x00007bc75cef2a00": 1668,
      "0x00007bc75cef29d0": 1669,
      "0x00007dd733db2a00": 1670,
      "0x00007dd733db29d0": 1671,
      "0x00007837de801a00": 1672,
      "0x00007837de8019d0": 1673,
      "0x00007847380d1a00": 1674,
      "0x00007847380d19d0": 1675,
      "0x00007e8549351a00": 1676,
      "0x00007e85493519d0": 1677,
      "0x00007e694fd71a00": 1678,
      "0x00007e694fd719d0": 1679,
      "0x00007762b88e1a00": 1680,
      "0x00007762b88e19d0": 1681,
      "0x00007acf79f60a00": 1682,
      "0x00007acf79f609d0": 1683,
      "0x000072c5fad94a00": 1684,
      "0x000072c5fad949d0": 1685,
      "0x00007b64be6cba00": 1686,
      "0x00007b64be6cb9d0": 1687,
      "0x0000712aa4a79a00": 1688,
      "0x0000712aa4a799d0": 1689,
      "0x00007557cc180a00": 1690,
      "0x00007557cc1809d0": 1691,
      "0x00007638c21a4a00": 1692,
      "0x00007638c21a49d0": 1693,
      "0x0000719086e48a00": 1694,
      "0x0000719086e489d0": 1695,
      "0x00007287ef3c8a00": 1696,
      "0x00007287ef3c89d0": 1697,
      "0x000077402446fa00": 1698,
      "0x000077402446f9d0": 1699,
      "0x00007dc77477d9d0": 1700,
      "0x00007455c4e77a00": 1701,
      "0x000074952ab5aa00": 1702,
      "0x00007acd6e47ca00": 1703,
      "0x00007acd6e47c9d0": 1704,
      "0x00007bf25e479a00": 1705,
      "0x00007bf25e4799d0": 1706,
      "0x000073d90e349a00": 1707,
      "0x000073d90e3499d0": 1708,
      "0x00007da9a82bca00": 1709,
      "0x00007da9a82bc9d0": 1710,
      "0x000074952ab5a9d0": 1711,
      "0x00007ad029743a00": 1712,
      "0x00007ad0297439d0": 1713,
      "0x00007bfcbbc83a00": 1714,
      "0x00007bfcbbc839d0": 1715,
      "0x00007455c4e779d0": 1716,
      "0x00007dc77477da00": 1717,
      "89": 1718,
      "8ce": 1719,
      "a29": 1720,
      "0xc0": 1721,
      "0x1f": 1722,
      "0x0000000000001000": 1723,
      "a4253": 1724,
      "0x000074952ab7": 1725,
      "680": 1726,
      "6b": 1727,
      "450": 1728,
      "a46e6": 1729,
      "a4450": 1730,
      "19e10": 1731,
      "a4228": 1732,
      "a4873": 1733,
      "2d0": 1734,
      "0x00007e8549373": 1735,
      "0x00007287ef3ea": 1736,
      "a46": 1737,
      "0x0000774024470": 1738,
      "a2a58": 1739,
      "fdfb0": 1740,
      "fdfc8": 1741,
      "fb090": 1742,
      "fb0c0": 1743,
      "0xfffffffffffff000": 1744,
      "df": 1745,
      "0x00007455c4e99": 1746,
      "2810": 1747,
      "31": 1748,
      "0x000072c5fad95": 1749,
      "2ce0": 1750,
      "400": 1751,
      "6f9": 1752,
      "0x00007e854937": 1753,
      "0xffffff47": 1754,
      "0x0000000c": 1755,
      "0x000000ff": 1756,
      "0x00007837de823": 1757,
      "a46fe": 1758,
      "5d70": 1759,
      "6f3": 1760,
      "0x0000719086e6a": 1761,
      "08": 1762,
      "91": 1763,
      "0x00007638c21b": 1764,
      "0x00007e7d823cf": 1765,
      "0x000074952ab4f": 1766,
      "0x0000741af12bf": 1767,
      "d3": 1768,
      "440": 1769,
      "853": 1770,
      "0x2f": 1771,
      "0x1e": 1772,
      "0xffffffa0": 1773,
      "r12l": 1774,
      "0x00007847380f3": 1775,
      "0x00007e694fd93": 1776,
      "2ae0": 1777,
      "818": 1778,
      "04": 1779,
      "af": 1780,
      "470": 1781,
      "75": 1782,
      "0x00007190864": 1783,
      "5ae0": 1784,
      "6ae0": 1785,
      "eae0": 1786,
      "4495": 1787,
      "768": 1788,
      "54e": 1789,
      "de0": 1790,
      "0x6474e553": 1791,
      "0x00007da9a82a": 1792,
      "0x00007e7d823fc": 1793,
      "0x0000741af12ec": 1794,
      "19fc": 1795,
      "650": 1796,
      "0x000074952a0": 1797,
      "0x00007762b8903": 1798,
      "0x00007dd7332": 1799,
      "0x00007bfcbb2": 1800,
      "0x000072c5fa2": 1801,
      "0x00007e694f2": 1802,
      "1fb": 1803,
      "620": 1804,
      "ae": 1805,
      "5360": 1806,
      "cf58": 1807,
      "cfc0": 1808,
      "0000000": 1809,
      "0xffffffa8": 1810,
      "0x0000000000000068": 1811,
      "r11l": 1812,
      "0x00000200": 1813,
      "0xfffffd98": 1814,
      "dd0": 1815,
      "9a": 1816,
      "508": 1817,
      "0x00007acf79f5f": 1818,
      "210": 1819,
      "0x00007557cc19": 1820,
      "0x0000712aa3e": 1821,
      "bf": 1822,
      "b340": 1823,
      "0x00007740244633": 1824,
      "0x00007bfcbbc773": 1825,
      "0x00007ad0297373": 1826,
      "0x00007b64be6bf3": 1827,
      "16a00": 1828,
      "0x00007e694fd70": 1829,
      "0x00007762b88e0": 1830,
      "0x000074952ab7c": 1831,
      "0x00007287ef3c7": 1832,
      "2280": 1833,
      "7f": 1834,
      "9280": 1835,
      "b641": 1836,
      "c280": 1837,
      "0xffffff40": 1838,
      "shu": 1839,
      "0x00007847380d0": 1840,
      "0x00007dc77477c": 1841,
      "a39b0": 1842,
      "a3e74": 1843,
      "a3af8": 1844,
      "5a9": 1845,
      "0x00007acd6e46": 1846,
      "0x00007bc75cee7": 1847,
      "0x00007dd733da7": 1848,
      "0x00007762b88f": 1849,
      "0x000074952ab6a": 1850,
      "0x0000719086e58": 1851,
      "0x00007acf79f70": 1852,
      "0x00007e7d823ea": 1853,
      "0x00007638c21b4": 1854,
      "0x0000741af12da": 1855,
      "0x00007287ef3d8": 1856,
      "0x00007557cc190": 1857,
      "0x000074952ab5b": 1858,
      "0x000072c5fada4": 1859,
      "0x00007762b88f1": 1860,
      "0x00007ad029753": 1861,
      "0x00007bfcbbc93": 1862,
      "ffb403": 1863,
      "ffb331": 1864,
      "0x0000719086e5": 1865,
      "0x00007b64be6db": 1866,
      "0x00007837de811": 1867,
      "0x000077402447f": 1868,
      "0x00007455c4e87": 1869,
      "0x00007dc77478d": 1870,
      "0x0000719086e47": 1871,
      "0x00007837de800": 1872,
      "0x00007bc75cf14": 1873,
      "a3de8": 1874,
      "a3a06": 1875,
      "0x00007e8549350": 1876,
      "0x000073d90e359": 1877,
      "0x00007ad0253": 1878,
      "0x00007bc758b": 1879,
      "0x00007dc7703": 1880,
      "0x00007495267": 1881,
      "0x00007e7d7e3": 1882,
      "0x0000712aa07": 1883,
      "0x00007455c0b": 1884,
      "0x00007837da3": 1885,
      "af0": 1886,
      "0xb0": 1887,
      "0x000003d0": 1888,
      "0x00007bc75ce": 1889,
      "17768": 1890,
      "0x0000712aa4a78": 1891,
      "5800": 1892,
      "0x00007bfcbbc84": 1893,
      "0x00007ad029744": 1894,
      "600": 1895,
      "6c0": 1896,
      "0x00007455c4e78": 1897,
      "1220": 1898,
      "a3c04": 1899,
      "0x0000719086e3c7": 1900,
      "0x00007287ef3bc7": 1901,
      "0x00007557cc1747": 1902,
      "29e": 1903,
      "62": 1904,
      "0x00007740244637": 1905,
      "5250": 1906,
      "b3": 1907,
      "a50f7": 1908,
      "0x00007638c1": 1909,
      "7b": 1910,
      "0xffffff18": 1911,
      "jns": 1912,
      "28650": 1913,
      "1a178": 1914,
      "5a5": 1915,
      "0x00000458": 1916,
      "0x6ffff": 1917,
      "0x00007dc77479f": 1918,
      "0x00007847380f": 1919,
      "0x000077402448": 1920,
      "5518": 1921,
      "a60": 1922,
      "625": 1923,
      "ffb4b7": 1924,
      "0x00007dc77479": 1925,
      "56b0": 1926,
      "5240": 1927,
      "db": 1928,
      "8d": 1929,
      "e78": 1930,
      "a3d60": 1931,
      "d800": 1932,
      "a4090": 1933,
      "a4076": 1934,
      "a4056": 1935,
      "5c7": 1936,
      "5390": 1937,
      "bw": 1938,
      "pshu": 1939,
      "wd": 1940,
      "0x3a": 1941,
      "0x000002a8": 1942,
      "0x00000318": 1943,
      "punpcklbw": 1944,
      "punpcklwd": 1945,
      "pshufd": 1946,
      "50f7": 1947,
      "578d": 1948,
      "6450": 1949,
      "a5300": 1950,
      "a5250": 1951,
      "a52d0": 1952,
      "a50d6": 1953,
      "a51b0": 1954,
      "a51c8": 1955,
      "3af": 1956,
      "42": 1957,
      "5460": 1958,
      "6400": 1959,
      "81": 1960,
      "5310": 1961,
      "53f0": 1962,
      "49": 1963,
      "9b": 1964,
      "4090": 1965,
      "0x00007e7d823ce8": 1966,
      "0x000074952ab4e8": 1967,
      "0x00007740244638": 1968,
      "0x00007b64be6bf8": 1969,
      "0x00007740201": 1970,
      "0x00007bf25a1": 1971,
      "0x00007acd6a1": 1972,
      "a26a0": 1973,
      "a2a00": 1974,
      "a2de0": 1975,
      "a2fc8": 1976,
      "a5200": 1977,
      "a52de": 1978,
      "a54a8": 1979,
      "a5460": 1980,
      "a54b0": 1981,
      "a544c": 1982,
      "42c": 1983,
      "59b0": 1984,
      "0x00007da9a82bd": 1985,
      "5fd1": 1986,
      "0x0000774024491a": 1987,
      "ro": 1988,
      "movq": 1989,
      "xmm6": 1990,
      "0x00000010": 1991,
      "0x07": 1992,
      "0x00000009": 1993,
      "0x00000360": 1994,
      "e9": 1995,
      "6440": 1996,
      "0x00007bf25e478": 1997,
      "0x000073d90e348": 1998,
      "0x00007acf79f7": 1999,
      "53b0": 2000,
      "2d10": 2001,
      "5818": 2002,
      "5853": 2003,
      "208": 2004,
      "52ff": 2005,
      "52af": 2006,
      "5802": 2007,
      "4076": 2008,
      "4056": 2009,
      "52d0": 2010,
      "6624": 2011,
      "60d0": 2012,
      "9d": 2013,
      "c6": 2014,
      "0x00007acd6e47d": 2015,
      "50d6": 2016,
      "51b0": 2017,
      "51c8": 2018,
      "fe0": 2019,
      "2c7d": 2020,
      "54b0": 2021,
      "3ae8": 2022,
      "5200": 2023,
      "128": 2024,
      "5880": 2025,
      "00000": 2026,
      "0xaaaa": 2027,
      "0x000002c0": 2028,
      "5370": 2029,
      "aaab": 2030,
      "54a8": 2031,
      "0x00007acf79f547": 2032,
      "544c": 2033,
      "52de": 2034,
      "eae8": 2035,
      "0x00007dc7747717": 2036,
      "2ae8": 2037,
      "6ae8": 2038,
      "3af8": 2039,
      "0x000072c5fad9e": 2040,
      "b5": 2041,
      "68ce": 2042,
      "5e": 2043,
      "5a4": 2044,
      "21ac80": 2045,
      "46cd": 2046,
      "260": 2047,
      "1a0": 2048,
      "0x00007762b88eb": 2049,
      "0x00007557cc16": 2050,
      "0x0000741af12d4": 2051,
      "0x000077402446e": 2052,
      "9a0": 2053,
      "881": 2054,
      "0x0000000000000021": 2055,
      "0x000002b": 2056,
      "0xaaaaaaab": 2057,
      "fb3": 2058,
      "a9b0": 2059,
      "0x00007dd733dbc": 2060,
      "0x00007e7d823e4": 2061,
      "c4b6": 2062,
      "0x00007acf79f6a": 2063,
      "0x00007b64be6eda": 2064,
      "d4b6": 2065,
      "5a600": 2066,
      "64b6": 2067,
      "7478": 2068,
      "0x0000741af12e": 2069,
      "6f": 2070,
      "0x00007557cc17f": 2071,
      "da4": 2072,
      "29b0": 2073,
      "0x44": 2074,
      "0xffffff10": 2075,
      "0x000009": 2076,
      "0x000001d0": 2077,
      "0x000003f8": 2078,
      "4ad8": 2079,
      "cad8": 2080,
      "6fa8": 2081,
      "2b00": 2082,
      "79b0": 2083,
      "0x00007dc7747718": 2084,
      "0x00007638c21988": 2085,
      "d82": 2086,
      "0x00007638c21ae": 2087,
      "2220": 2088,
      "ffb0": 2089,
      "3e": 2090,
      "a9fc": 2091,
      "0x00007bc75cefc": 2092,
      "a2810": 2093,
      "a2ce0": 2094,
      "2cd0": 2095,
      "0x0000749529e5": 2096,
      "a29be": 2097,
      "a2978": 2098,
      "1a42": 2099,
      "8ceb0": 2100,
      "0x00007455c428": 2101,
      "0x00007bc75c28": 2102,
      "0x00007acf7928": 2103,
      "0x00007bf25e46d8": 2104,
      "0x0000712aa4a6d8": 2105,
      "0x00007ad028a8": 2106,
      "0x00007dc773a8": 2107,
      "0x00007837dda8": 2108,
      "0x0000712aa3e8": 2109,
      "0x000071908628": 2110,
      "0x0000749529e8": 2111,
      "0x00007b64bda8": 2112,
      "160": 2113,
      "9220": 2114,
      "3b": 2115,
      "0x00007bfcbbc8d": 2116,
      "0x00007ad02974d": 2117,
      "35": 2118,
      "xmm5": 2119,
      "50f": 2120,
      "0x00007dd733": 2121,
      "0x000074952ab64": 2122,
      "0xfffffef8": 2123,
      "ymm1": 2124,
      "41": 2125,
      "0x00000044": 2126,
      "0x00000049": 2127,
      "0x000078473748": 2128,
      "0x00007557cb48": 2129,
      "0x00007638c148": 2130,
      "219e": 2131,
      "1a20": 2132,
      "97": 2133,
      "1dd8": 2134,
      "0x00007acd6e486": 2135,
      "0x00007da9a82c6": 2136,
      "2b58": 2137,
      "8c": 2138,
      "29be": 2139,
      "2978": 2140,
      "38a": 2141,
      "be0": 2142,
      "0x0000749529e": 2143,
      "3640": 2144,
      "b640": 2145,
      "d640": 2146,
      "0x00007837de81": 2147,
      "a640": 2148,
      "1640": 2149,
      "57": 2150,
      "b12": 2151,
      "ea0": 2152,
      "a1": 2153,
      "c220": 2154,
      "418": 2155,
      "5b0": 2156,
      "0xffffff28": 2157,
      "0x00000fc0": 2158,
      "262": 2159,
      "0x00000358": 2160,
      "0x00000398": 2161,
      "0x00000321": 2162,
      "0xfffffb60": 2163,
      "0x00000800": 2164,
      "1a3b": 2165,
      "0x00000100": 2166,
      "0x000072c5fadb6": 2167,
      "0x0000774024479": 2168,
      "0x00007e694fd9": 2169,
      "6120": 2170,
      "de0c": 2171,
      "19ed": 2172,
      "0x00007dc7747a0": 2173,
      "0x00007e694fd94": 2174,
      "0x00007837de824": 2175,
      "2c8": 2176,
      "bc6": 2177,
      "19d5": 2178,
      "0x00007638c21c7": 2179,
      "0x00007acf79f82ae0": 2180,
      "0x0000712aa4a9bae0": 2181,
      "0x000073d90e36bae0": 2182,
      "0x00007da9a82deae0": 2183,
      "0x00007bf25e49bae0": 2184,
      "0x00007ad029765ae0": 2185,
      "0x00007557cc1a2ae0": 2186,
      "0x00007638c21c6ae0": 2187,
      "0x000072c5fadb6ae0": 2188,
      "0x00007acd6e49eae0": 2189,
      "0x00007bfcbbca5ae0": 2190,
      "0x00007dd733dd4ae0": 2191,
      "0x00007e8549373ae0": 2192,
      "0x00007287ef3eaae0": 2193,
      "0x00007455c4e99ae0": 2194,
      "0x00007837de823ae0": 2195,
      "0x0000719086e6aae0": 2196,
      "0x00007847380f3ae0": 2197,
      "0x00007e694fd93ae0": 2198,
      "0x00007e7d823fcae0": 2199,
      "0x0000741af12ecae0": 2200,
      "0x00007762b8903ae0": 2201,
      "0x000074952ab7cae0": 2202,
      "0x00007bc75cf14ae0": 2203,
      "0x00007dc77479fae0": 2204,
      "0x0000774024491ae0": 2205,
      "0x00007b64be6edae0": 2206,
      "2340": 2207,
      "c8a": 2208,
      "0x0000719086e49": 2209,
      "0x00007287ef3c9": 2210,
      "19b0": 2211,
      "28b": 2212,
      "19ad": 2213,
      "6fd8": 2214,
      "4737": 2215,
      "0x00007455c4e71a": 2216,
      "0x00007bfcbbc7da": 2217,
      "0x00007557cc17aa": 2218,
      "0x00007b64be6c5a": 2219,
      "2d09": 2220,
      "72a": 2221,
      "1a6a": 2222,
      "948b": 2223,
      "a08": 2224,
      "0x00007b64be6cc": 2225,
      "3f7": 2226,
      "8000": 2227,
      "d1": 2228,
      "a90": 2229,
      "cb0": 2230,
      "0x00007287ef3eb": 2231,
      "fcf": 2232,
      "0x00007e7d823fd": 2233,
      "10000000": 2234,
      "vmovdqu": 2235,
      "0xa8": 2236,
      "0xa0": 2237,
      "0x10000000": 2238,
      "ffffffff": 2239,
      "0xffffff00": 2240,
      "0x0000000000000011": 2241,
      "deb3": 2242,
      "3340": 2243,
      "0x00000400": 2244,
      "0x00000440": 2245,
      "0x0000000000000fcf": 2246,
      "0xfffffdb8": 2247,
      "0x000002b8": 2248,
      "1a8": 2249,
      "39": 2250,
      "0x00007455c425": 2251,
      "0x00007bc75c25": 2252,
      "0x00007acf7925": 2253,
      "0x00007dc7747723": 2254,
      "0x00007bc75cee73": 2255,
      "0x00007dd733da73": 2256,
      "0x000071908625": 2257,
      "528": 2258,
      "ca": 2259,
      "88d": 2260,
      "0x00007847380f4": 2261,
      "0x00007dc77477e": 2262,
      "0x00007bfcbbc778": 2263,
      "0x00007557cc1748": 2264,
      "0x00007bc75cee68": 2265,
      "0x00007455c4e6b8": 2266,
      "0x00007dd733da68": 2267,
      "0x00007ad0297378": 2268,
      "0x0000719086e3c8": 2269,
      "ce30": 2270,
      "5b1fb": 2271,
      "a15": 2272,
      "0x00007bc75cee8": 2273,
      "0x0000741af12cb": 2274,
      "0x00007e7d823db": 2275,
      "3641": 2276,
      "7ad8": 2277,
      "fad8": 2278,
      "f400": 2279,
      "0x0000712aa4a89280": 2280,
      "0x00007acd6e48c280": 2281,
      "0x00007bf25e489280": 2282,
      "0x00007da9a82cc280": 2283,
      "0x00007e694fd81280": 2284,
      "0x00007bc75cf02280": 2285,
      "0x00007dd733dc2280": 2286,
      "0x00007847380e1280": 2287,
      "0x00007e8549361280": 2288,
      "0x000074952ab6a280": 2289,
      "0x0000719086e58280": 2290,
      "0x00007acf79f70280": 2291,
      "0x00007e7d823ea280": 2292,
      "0x00007638c21b4280": 2293,
      "0x0000741af12da280": 2294,
      "0x00007287ef3d8280": 2295,
      "0x00007557cc190280": 2296,
      "0x000072c5fada4280": 2297,
      "0x00007762b88f1280": 2298,
      "0x00007ad029753280": 2299,
      "0x00007bfcbbc93280": 2300,
      "0x00007b64be6db280": 2301,
      "0x00007837de811280": 2302,
      "0x000077402447f280": 2303,
      "0x00007455c4e87280": 2304,
      "0x00007dc77478d280": 2305,
      "0x000073d90e359280": 2306,
      "690": 2307,
      "0x00007dd733da8": 2308,
      "0x000072c5fada": 2309,
      "0x00007bfcbbc9": 2310,
      "f1d0": 2311,
      "f1df": 2312,
      "0x00007557cc1753": 2313,
      "f358": 2314,
      "0x00007da9a82c7": 2315,
      "f450": 2316,
      "0x00007e8549347": 2317,
      "0x00007bf25e49c": 2318,
      "0d0": 2319,
      "ad10": 2320,
      "6c9": 2321,
      "254": 2322,
      "ba": 2323,
      "ea8": 2324,
      "a588": 2325,
      "4c7": 2326,
      "0x00007287ef3be": 2327,
      "0x00007acd6e4714": 2328,
      "0x00007da9a82b14": 2329,
      "0x00007dc7747724": 2330,
      "0x00007bfcbbc784": 2331,
      "0x00007557cc1754": 2332,
      "0x00007bc75cee74": 2333,
      "0x000072c5fad894": 2334,
      "f440": 2335,
      "0x00007455c4e6c4": 2336,
      "0x00007dd733da74": 2337,
      "0x00007638c21994": 2338,
      "0x000073d90e33e4": 2339,
      "0x00007287ef3bd4": 2340,
      "0x0000741af068": 2341,
      "0x00007e854868": 2342,
      "0x00007287ee68": 2343,
      "ce9c": 2344,
      "0x00007da9a768": 2345,
      "0x000073d90d68": 2346,
      "f0d0": 2347,
      "998": 2348,
      "0x000074952ab50": 2349,
      "de80": 2350,
      "9e9": 2351,
      "0x00007847380c7": 2352,
      "cee0": 2353,
      "63": 2354,
      "920": 2355,
      "d81d": 2356,
      "lo": 2357,
      "0x7": 2358,
      "0xc": 2359,
      "0x21": 2360,
      "0xfffffd8": 2361,
      "cmpxchg": 2362,
      "deb0": 2363,
      "bef8": 2364,
      "0x0000010": 2365,
      "d850": 2366,
      "seto": 2367,
      "movhps": 2368,
      "0xfffffb40": 2369,
      "rol": 2370,
      "0x00000972": 2371,
      "lock": 2372,
      "a80": 2373,
      "0x00007acd6e49f": 2374,
      "4d": 2375,
      "5d0": 2376,
      "ac7d": 2377,
      "cd0": 2378,
      "0x00007bc75cef29": 2379,
      "0x00007dd733db29": 2380,
      "630": 2381,
      "ff9": 2382,
      "5b2c3": 2383,
      "ef0": 2384,
      "0x00007762b7": 2385,
      "0x0000719086e6b": 2386,
      "e7": 2387,
      "0x00007acd6e49e": 2388,
      "980": 2389,
      "0x00007ad029754": 2390,
      "0x00007bfcbbc94": 2391,
      "0x00007e7d823eb": 2392,
      "0x0000774024480": 2393,
      "ce23": 2394,
      "0x00007455c4e76": 2395,
      "0x00007455c4e88": 2396,
      "0x00007dc77478e": 2397,
      "3d28": 2398,
      "bd28": 2399,
      "3489": 2400,
      "39b0": 2401,
      "0x00007da9a82de": 2402,
      "430": 2403,
      "0x0000719086e59": 2404,
      "0x000073d90e354": 2405,
      "0x000073d90e35a": 2406,
      "0x000072c5fada5": 2407,
      "2ad8": 2408,
      "0x00007acd6e4764": 2409,
      "0x00007da9a82b64": 2410,
      "0x00007bfcbbc7d4": 2411,
      "0x00007bc75ceec4": 2412,
      "0x00007638c21a5": 2413,
      "0x00007b64be6c54": 2414,
      "0x0000719086e424": 2415,
      "0x00007287ef3c24": 2416,
      "0x00007740244694": 2417,
      "0x00007acd6e47b": 2418,
      "0x00007da9a82bb": 2419,
      "13": 2420,
      "34c4": 2421,
      "fb7": 2422,
      "2625": 2423,
      "ec00": 2424,
      "0x00007b64be6dc": 2425,
      "554": 2426,
      "34a9": 2427,
      "036": 2428,
      "3a06": 2429,
      "fa": 2430,
      "dee": 2431,
      "cb5": 2432,
      "0x000074952a01": 2433,
      "330": 2434,
      "3e74": 2435,
      "fa0": 2436,
      "0x00007638c21b56": 2437,
      "080": 2438,
      "dd": 2439,
      "0x90": 2440,
      "0xffffff2c": 2441,
      "0x00000000000001": 2442,
      "0x0000003a": 2443,
      "0x08000000": 2444,
      "0x00000368": 2445,
      "0x000003a0": 2446,
      "f32": 2447,
      "0xfffffd78": 2448,
      "0x00000170": 2449,
      "ac8": 2450,
      "530": 2451,
      "0x00007dc774788": 2452,
      "099": 2453,
      "0x00007557cc1a3": 2454,
      "0x00007ad029766": 2455,
      "0x0000741af12ed": 2456,
      "3de8": 2457,
      "0x00007638c219e5": 2458,
      "0x00007ad02975": 2459,
      "0x00007bfcbbca6": 2460,
      "0x00007b64be6c55": 2461,
      "b54": 2462,
      "5c0": 2463,
      "3c04": 2464,
      "4f": 2465,
      "2ac0": 2466,
      "0x00007bc75cef16": 2467,
      "0x00007dd733db16": 2468,
      "add8": 2469,
      "0x00007762b88d5780": 2470,
      "0x00007e694fd65780": 2471,
      "0x00007e8549345780": 2472,
      "0x00007847380c5780": 2473,
      "f41": 2474,
      "0x00007837de7f5780": 2475,
      "0x000072c5fad88780": 2476,
      "0x00007acd6e470780": 2477,
      "0x00007da9a82b0780": 2478,
      "0x000073d90e33d780": 2479,
      "0x0000741af12be780": 2480,
      "0x00007638c2198780": 2481,
      "0x00007bc75cee6780": 2482,
      "0x00007dd733da6780": 2483,
      "0x00007455c4e6b780": 2484,
      "0x00007e7d823ce780": 2485,
      "0x000074952ab4e780": 2486,
      "0x00007bf25e46d780": 2487,
      "0x0000712aa4a6d780": 2488,
      "0x00007b64be6bf780": 2489,
      "0x00007bfcbbc77780": 2490,
      "0x00007ad029737780": 2491,
      "0x0000719086e3c780": 2492,
      "0x00007287ef3bc780": 2493,
      "0x00007557cc174780": 2494,
      "0x0000774024463780": 2495,
      "0x00007acf79f54780": 2496,
      "0x00007dc774771780": 2497,
      "eac0": 2498,
      "3ab0": 2499,
      "0x00007acf79f83": 2500,
      "2558": 2501,
      "0x00007dd733dd5": 2502,
      "ffa8": 2503,
      "105": 2504,
      "2ab0": 2505,
      "efa8": 2506,
      "0x000072c5fad80": 2507,
      "730": 2508,
      "0x00007bc75cf": 2509,
      "5a59": 2510,
      "0f": 2511,
      "7a": 2512,
      "eab0": 2513,
      "0x0000719086e34": 2514,
      "0x00007638c2190": 2515,
      "0x00007acd6e468": 2516,
      "5ad8": 2517,
      "dad8": 2518,
      "ead8": 2519,
      "5c88d": 2520,
      "6ab0": 2521,
      "5a540": 2522,
      "5a5a8": 2523,
      "5a592": 2524,
      "6e8": 2525,
      "d50": 2526,
      "acd0": 2527,
      "bcd0": 2528,
      "b680": 2529,
      "0x00007740244695": 2530,
      "0x000073d90e353": 2531,
      "d6b0": 2532,
      "6e0": 2533,
      "0x00007da9a82a8": 2534,
      "4253": 2535,
      "dt": 2536,
      "rdt": 2537,
      "sc": 2538,
      "0x8": 2539,
      "0x34": 2540,
      "0x3c": 2541,
      "0x00008000": 2542,
      "0x0000000000000012": 2543,
      "0x00000016": 2544,
      "0x0d": 2545,
      "r15l": 2546,
      "0x000071908641": 2547,
      "punpckldq": 2548,
      "0x000077402445b": 2549,
      "0xfffffb68": 2550,
      "0xfffffd90": 2551,
      "0x6474e551": 2552,
      "0xfffffde0": 2553,
      "0000002": 2554,
      "0xc0000002": 2555,
      "0xfffffd80": 2556,
      "rdtsc": 2557,
      "0x00007e854933d": 2558,
      "4228": 2559,
      "0090": 2560,
      "0x00007bc75cef2a": 2561,
      "0x00007dd733db2a": 2562,
      "1d70": 2563,
      "f7b": 2564,
      "4450": 2565,
      "6d8": 2566,
      "0x00007e694f08": 2567,
      "0x000077402388": 2568,
      "0x00007bf25d88": 2569,
      "0x000072c5fa08": 2570,
      "0x00007bfcbb08": 2571,
      "0x00007dd73308": 2572,
      "0x00007acd6d88": 2573,
      "0x00007e7d81a8": 2574,
      "0x00007762b7c8": 2575,
      "1120": 2576,
      "46e6": 2577,
      "e120": 2578,
      "f120": 2579,
      "0x000074952ab46": 2580,
      "fb50f": 2581,
      "fb28b": 2582,
      "fb3f7": 2583,
      "0x00007455c4e9a": 2584,
      "0x0000741af12c0": 2585,
      "0x00007e7d823d0": 2586,
      "fb325": 2587,
      "33a8": 2588,
      "0x00007dc774769": 2589,
      "0x00007e854935c": 2590,
      "0x00007e7d823f": 2591,
      "67": 2592,
      "a70": 2593,
      "ba98": 2594,
      "df8": 2595,
      "2737": 2596,
      "3d70": 2597,
      "c737": 2598,
      "0x00007dc774773": 2599,
      "0x00007acd6e476ae8": 2600,
      "0x00007da9a82b6ae8": 2601,
      "0x00007bf25e473ae8": 2602,
      "0x000073d90e343ae8": 2603,
      "0x00007557cc18a": 2604,
      "0x000072c5fad8eae8": 2605,
      "0x0000719086e42ae8": 2606,
      "0x00007287ef3c2ae8": 2607,
      "0x00007638c219eae8": 2608,
      "0x00007847380cbae8": 2609,
      "0x00007ad02973dae8": 2610,
      "0x00007837de7fbae8": 2611,
      "0x00007dd733dacae8": 2612,
      "0x000074952ab54ae8": 2613,
      "0x00007e694fd6bae8": 2614,
      "0x00007e854934bae8": 2615,
      "0x00007762b88dbae8": 2616,
      "0x0000712aa4a73ae8": 2617,
      "0x00007e7d823d4ae8": 2618,
      "0x0000741af12c4ae8": 2619,
      "0x00007bc75ceecae8": 2620,
      "0x0000774024469ae8": 2621,
      "0x00007acf79f5aae8": 2622,
      "0x00007dc774777ae8": 2623,
      "0x00007455c4e71ae8": 2624,
      "0x00007bfcbbc7dae8": 2625,
      "0x00007557cc17aae8": 2626,
      "0x00007b64be6c5ae8": 2627,
      "c84": 2628,
      "0x00007e694fd7c": 2629,
      "0x000002d0": 2630,
      "0x00007dc774787": 2631,
      "546c0": 2632,
      "54c8a": 2633,
      "0x000072c5fad93": 2634,
      "5a588": 2635,
      "5bef8": 2636,
      "34b6": 2637,
      "54a15": 2638,
      "54998": 2639,
      "549e9": 2640,
      "a87": 2641,
      "da30": 2642,
      "c86": 2643,
      "5c7cb": 2644,
      "5c7c0": 2645,
      "5a4ea": 2646,
      "5a4d0": 2647,
      "218": 2648,
      "0x0000741af12ca": 2649,
      "0x00007e7d823da": 2650,
      "251a": 2651,
      "5c180": 2652,
      "0x00007b64be6d6": 2653,
      "46fe": 2654,
      "0x00007557cc181": 2655,
      "5bf32": 2656,
      "7240": 2657,
      "0x00007acf79f61": 2658,
      "8ce30": 2659,
      "e0c": 2660,
      "0x00007b64be6d5": 2661,
      "350": 2662,
      "b2": 2663,
      "e2": 2664,
      "0x00007dc7747714": 2665,
      "0x00007740244634b6": 2666,
      "0x00007bfcbbc77478": 2667,
      "0x00007762b88d55a0": 2668,
      "0x00007762b88d54b6": 2669,
      "0x00007762b88d5720": 2670,
      "0x00007762b88d5533": 2671,
      "0x00007762b88d5478": 2672,
      "0x00007e694fd655a0": 2673,
      "0x00007e694fd654b6": 2674,
      "0x00007e694fd65720": 2675,
      "0x00007e694fd65533": 2676,
      "0x00007e694fd65478": 2677,
      "0x00007e85493455a0": 2678,
      "0x00007e85493454b6": 2679,
      "0x00007e8549345720": 2680,
      "0x00007e8549345533": 2681,
      "0x00007e8549345478": 2682,
      "0x00007bc75cee64b6": 2683,
      "0x00007847380c55a0": 2684,
      "0x00007847380c54b6": 2685,
      "0x00007847380c5720": 2686,
      "0x00007847380c5533": 2687,
      "0x00007847380c5478": 2688,
      "0x00007837de7f55a0": 2689,
      "0x00007837de7f54b6": 2690,
      "0x00007837de7f5720": 2691,
      "0x00007837de7f5533": 2692,
      "0x00007837de7f5478": 2693,
      "0x00007dd733da64b6": 2694,
      "0x00007ad029737478": 2695,
      "0x00007bf25e46d4b6": 2696,
      "0x0000712aa4a6d4b6": 2697,
      "0x0000719086e3c4b6": 2698,
      "0x000072c5fad88478": 2699,
      "0x000072c5fad885a0": 2700,
      "0x000072c5fad88533": 2701,
      "0x000072c5fad88720": 2702,
      "0x000072c5fad884b6": 2703,
      "0x00007acd6e470478": 2704,
      "0x00007acd6e4705a0": 2705,
      "0x00007acd6e470533": 2706,
      "0x00007acd6e470720": 2707,
      "0x00007acd6e4704b6": 2708,
      "0x00007da9a82b0478": 2709,
      "0x00007da9a82b05a0": 2710,
      "0x00007da9a82b0533": 2711,
      "0x00007da9a82b0720": 2712,
      "0x00007da9a82b04b6": 2713,
      "0x000073d90e33d478": 2714,
      "0x000073d90e33d5a0": 2715,
      "0x000073d90e33d533": 2716,
      "0x000073d90e33d720": 2717,
      "0x000073d90e33d4b6": 2718,
      "0x0000741af12be478": 2719,
      "0x0000741af12be5a0": 2720,
      "0x0000741af12be533": 2721,
      "0x0000741af12be720": 2722,
      "0x0000741af12be4b6": 2723,
      "0x00007638c2198478": 2724,
      "0x00007638c21985a0": 2725,
      "0x00007638c2198533": 2726,
      "0x00007638c2198720": 2727,
      "0x00007638c21984b6": 2728,
      "0x00007bc75cee6478": 2729,
      "0x00007bc75cee65a0": 2730,
      "0x00007bc75cee6533": 2731,
      "0x00007bc75cee6720": 2732,
      "0x00007dd733da6478": 2733,
      "0x00007dd733da65a0": 2734,
      "0x00007dd733da6533": 2735,
      "0x00007dd733da6720": 2736,
      "0x00007455c4e6b478": 2737,
      "0x00007455c4e6b5a0": 2738,
      "0x00007455c4e6b533": 2739,
      "0x00007455c4e6b720": 2740,
      "0x00007455c4e6b4b6": 2741,
      "0x00007acf79f54478": 2742,
      "0x00007acf79f545a0": 2743,
      "0x00007acf79f54533": 2744,
      "0x00007acf79f544b6": 2745,
      "0x00007e7d823ce478": 2746,
      "0x00007e7d823ce5a0": 2747,
      "0x00007e7d823ce533": 2748,
      "0x00007e7d823ce720": 2749,
      "0x00007e7d823ce4b6": 2750,
      "0x000074952ab4e478": 2751,
      "0x000074952ab4e5a0": 2752,
      "0x000074952ab4e533": 2753,
      "0x000074952ab4e720": 2754,
      "0x000074952ab4e4b6": 2755,
      "0x00007287ef3bc478": 2756,
      "0x00007287ef3bc5a0": 2757,
      "0x00007287ef3bc533": 2758,
      "0x00007bf25e46d478": 2759,
      "0x00007bf25e46d5a0": 2760,
      "0x00007bf25e46d533": 2761,
      "0x00007bf25e46d720": 2762,
      "0x0000712aa4a6d478": 2763,
      "0x0000712aa4a6d5a0": 2764,
      "0x0000712aa4a6d533": 2765,
      "0x0000712aa4a6d720": 2766,
      "0x00007557cc174478": 2767,
      "0x00007557cc1745a0": 2768,
      "0x00007557cc174533": 2769,
      "0x00007557cc1744b6": 2770,
      "0x0000719086e3c478": 2771,
      "0x0000719086e3c5a0": 2772,
      "0x0000719086e3c533": 2773,
      "0x00007b64be6bf478": 2774,
      "0x00007b64be6bf5a0": 2775,
      "0x00007b64be6bf533": 2776,
      "0x00007b64be6bf720": 2777,
      "0x00007b64be6bf4b6": 2778,
      "0x00007dc774771478": 2779,
      "0x00007dc7747715a0": 2780,
      "0x00007dc774771533": 2781,
      "0x00007bfcbbc775a0": 2782,
      "0x00007bfcbbc77533": 2783,
      "0x00007bfcbbc77720": 2784,
      "0x00007bfcbbc774b6": 2785,
      "0x00007ad0297375a0": 2786,
      "0x00007ad029737533": 2787,
      "0x00007ad029737720": 2788,
      "0x00007ad0297374b6": 2789,
      "0x0000774024463478": 2790,
      "0x00007740244635a0": 2791,
      "0x0000774024463533": 2792,
      "0x00007287ef3bc4b6": 2793,
      "0x0000719086e3c720": 2794,
      "0x00007287ef3bc720": 2795,
      "0x00007557cc174720": 2796,
      "0x0000774024463720": 2797,
      "0x00007acf79f54720": 2798,
      "0x00007dc774771720": 2799,
      "0x00007dc7747714b6": 2800,
      "3c7d": 2801,
      "3d10": 2802,
      "2dd8": 2803,
      "398": 2804,
      "a94": 2805,
      "19f": 2806,
      "118": 2807,
      "fb4c7": 2808,
      "0x0000741af12cbd": 2809,
      "0x00007e7d823dbd": 2810,
      "0x00007557cc181d": 2811,
      "0x00007acf79f61d": 2812,
      "fb3cf": 2813,
      "sbb": 2814,
      "vpcmpeqb": 2815,
      "0x2c": 2816,
      "0xfe": 2817,
      "0x00000000000000d8": 2818,
      "0x00000000000000a0": 2819,
      "0x00000018": 2820,
      "0x000000f0": 2821,
      "0x0180": 2822,
      "0x0055": 2823,
      "r13l": 2824,
      "64c": 2825,
      "r11w": 2826,
      "0x000003ff": 2827,
      "0x00007455c4e766": 2828,
      "1d1": 2829,
      "0xfffffb38": 2830,
      "4e47": 2831,
      "0xfffffdc0": 2832,
      "0x6474e552": 2833,
      "8ce9c": 2834,
      "0x6ffffe": 2835,
      "0x00554e47": 2836,
      "65": 2837,
      "0x00007dc7747779b0": 2838,
      "0x0000741af12c9": 2839,
      "0x00007e7d823d9": 2840,
      "0x00007455c4e719b0": 2841,
      "0x00007557cc17a9b0": 2842,
      "0x00007bc75cef1": 2843,
      "0x00007dd733db1": 2844,
      "0x0000719086e429b0": 2845,
      "0x00007287ef3c29b0": 2846,
      "0x00007847380cb9b0": 2847,
      "0x00007ad02973d9b0": 2848,
      "0x00007837de7fb9b0": 2849,
      "0x00007dd733dac9b0": 2850,
      "0x000074952ab549b0": 2851,
      "0x00007e694fd6b9b0": 2852,
      "0x00007e854934b9b0": 2853,
      "0x00007762b88db9b0": 2854,
      "0x0000712aa4a739b0": 2855,
      "0x00007e7d823d49b0": 2856,
      "0x0000741af12c49b0": 2857,
      "0x00007bc75ceec9b0": 2858,
      "0x00007740244699b0": 2859,
      "0x00007638c219e9b0": 2860,
      "0x00007bfcbbc7d9b0": 2861,
      "0x00007acd6e4769b0": 2862,
      "0x00007da9a82b69b0": 2863,
      "0x000072c5fad8e9b0": 2864,
      "0x00007bf25e4739b0": 2865,
      "0x000073d90e3439b0": 2866,
      "0x00007b64be6c59b0": 2867,
      "0x000074952ab59": 2868,
      "9358": 2869,
      "0x00007acf79f5a9b0": 2870,
      "0x00007b64be6eead8": 2871,
      "0x00007762b8904ad8": 2872,
      "0x0000712aa4a9cad8": 2873,
      "0x000073d90e36cad8": 2874,
      "0x00007da9a82dfad8": 2875,
      "0x00007bc75cf15ad8": 2876,
      "0x0000774024492ad8": 2877,
      "0x000072c5fadb7ad8": 2878,
      "0x000074952ab7dad8": 2879,
      "0x00007e8549374ad8": 2880,
      "0x00007dc7747a0ad8": 2881,
      "0x00007e694fd94ad8": 2882,
      "0x00007837de824ad8": 2883,
      "0x00007638c21c7ad8": 2884,
      "0x00007287ef3ebad8": 2885,
      "0x00007e7d823fdad8": 2886,
      "0x00007847380f4ad8": 2887,
      "0x00007bf25e49cad8": 2888,
      "0x00007acd6e49fad8": 2889,
      "0x0000719086e6bad8": 2890,
      "0x00007557cc1a3ad8": 2891,
      "0x00007ad029766ad8": 2892,
      "0x0000741af12edad8": 2893,
      "0x00007bfcbbca6ad8": 2894,
      "0x00007acf79f83ad8": 2895,
      "0x00007dd733dd5ad8": 2896,
      "0x00007455c4e9aad8": 2897,
      "0x00007455c42a3": 2898,
      "0x00007bc75c2a3": 2899,
      "0x00007acf792a3": 2900,
      "0x0000741af12c96": 2901,
      "0x00007e7d823d96": 2902,
      "0x00007638c21a36": 2903,
      "0x00007bfcbbc826": 2904,
      "0x00007ad0297426": 2905,
      "0x00007b64be6ca6": 2906,
      "0x000077402446e6": 2907,
      "0x00007b64be6b7": 2908,
      "0x00007190862a3": 2909,
      "0x000074952ab596": 2910,
      "0x000072c5fad936": 2911,
      "be8": 2912,
      "1624": 2913,
      "a9ad": 2914,
      "0x00007b64be6ca": 2915,
      "76b0": 2916,
      "efd1": 2917,
      "7418": 2918,
      "12c0": 2919,
      "ffd8": 2920,
      "a9d5": 2921,
      "efd8": 2922,
      "ad09": 2923,
      "0x00007455c4e78d": 2924,
      "0x00007dc77477ed": 2925,
      "0x00007638c21a5d": 2926,
      "0x00007b64be6ccd": 2927,
      "0x00007455c4e81": 2928,
      "3430": 2929,
      "7802": 2930,
      "7624": 2931,
      "72ff": 2932,
      "4040": 2933,
      "4b00": 2934,
      "70d0": 2935,
      "90d0": 2936,
      "8ce23": 2937,
      "8cee0": 2938,
      "219ec8": 2939,
      "10d0": 2940,
      "d9": 2941,
      "0x00007b64be6bd": 2942,
      "0x00007acf79f56": 2943,
      "0x00007bfcbbca5": 2944,
      "5210": 2945,
      "03": 2946,
      "ff91": 2947,
      "1ca54": 2948,
      "1ca50": 2949,
      "1e0": 2950,
      "228": 2951,
      "d21": 2952,
      "5bd": 2953,
      "5b00": 2954,
      "1dd0": 2955,
      "0x00007638c21c6": 2956,
      "00c": 2957,
      "0x0000719086e52": 2958,
      "ad28": 2959,
      "2d28": 2960,
      "a489": 2961,
      "b10": 2962,
      "d188": 2963,
      "d08": 2964,
      "0x00007dc77476": 2965,
      "5188": 2966,
      "0x00007638c21a3": 2967,
      "0x00007acd6e46e": 2968,
      "92": 2969,
      "b5c": 2970,
      "c5": 2971,
      "0x00007dd733da4": 2972,
      "0x00007287ef3b4": 2973,
      "66b": 2974,
      "d7": 2975,
      "a96": 2976,
      "a9d": 2977,
      "9999": 2978,
      "0x00007acf79f4c": 2979,
      "ec0": 2980,
      "a9c4": 2981,
      "a4a9": 2982,
      "a4c4": 2983,
      "29c4": 2984,
      "0x00007dc7747774": 2985,
      "0x00007455c4e714": 2986,
      "0x000072c5fad8e4": 2987,
      "53a": 2988,
      "9640": 2989,
      "ffdfb0": 2990,
      "ffdfc8": 2991,
      "0x00007da9a82be": 2992,
      "ffb090": 2993,
      "ffb0c0": 2994,
      "a78": 2995,
      "da0": 2996,
      "b7": 2997,
      "0x0000000000000040": 2998,
      "d80": 2999,
      "7340": 3000,
      "0x00007dd733dd6": 3001,
      "0x000074952ab7e": 3002,
      "0x00007e694fd95": 3003,
      "0x00007acf79f4": 3004,
      "0x0000712aa4a8a640": 3005,
      "0x00007acd6e48d640": 3006,
      "0x00007287ef3d9640": 3007,
      "0x00007acd6e4a0": 3008,
      "0x00007bf25e48a640": 3009,
      "0x00007da9a82cd640": 3010,
      "0x00007e694fd82640": 3011,
      "0x00007bc75cf03640": 3012,
      "0x0000741af12db640": 3013,
      "0x00007dd733dc3640": 3014,
      "0x000074952ab6b640": 3015,
      "0x00007847380e2640": 3016,
      "0x00007e8549362640": 3017,
      "0x00007557cc191640": 3018,
      "0x00007762b88f2640": 3019,
      "0x00007acf79f71640": 3020,
      "0x00007837de812640": 3021,
      "0x00007ad029754640": 3022,
      "0x00007bfcbbc94640": 3023,
      "0x00007e7d823eb640": 3024,
      "0x0000774024480640": 3025,
      "0x00007455c4e88640": 3026,
      "0x00007dc77478e640": 3027,
      "0x0000719086e59640": 3028,
      "0x000073d90e35a640": 3029,
      "0x000072c5fada5640": 3030,
      "0x00007b64be6dc640": 3031,
      "0x00007638c21b5640": 3032,
      "bp": 3033,
      "cc0": 3034,
      "0x73": 3035,
      "0x9c": 3036,
      "0xffffff34": 3037,
      "0xfffffffd": 3038,
      "0xffffff27": 3039,
      "0xffffff74": 3040,
      "0xffffffbf": 3041,
      "xmm9": 3042,
      "0x0000000b": 3043,
      "0x000002a0": 3044,
      "0x000002c8": 3045,
      "0x00000370": 3046,
      "0x0000719086e6c": 3047,
      "0x000072c5fadb8": 3048,
      "0x00007455c4e9b": 3049,
      "0x00007287ef3ec": 3050,
      "0x000002e0": 3051,
      "0x00007e7d823fe": 3052,
      "0x00007638c21c8": 3053,
      "5b4d": 3054,
      "0x0000741af12ee": 3055,
      "0x00007837de825": 3056,
      "0xfffffd70": 3057,
      "0x00010000": 3058,
      "0xfffffee0": 3059,
      "0xfffffec0": 3060,
      "0x00000128": 3061,
      "cmovnb": 3062,
      "0xfffffef0": 3063,
      "ymm0": 3064,
      "ymm2": 3065,
      "ymm8": 3066,
      "0x00007da9a82e0": 3067,
      "cccc": 3068,
      "bpl": 3069,
      "a340": 3070,
      "6d": 3071,
      "2620": 3072,
      "477": 3073,
      "0x00007837de82": 3074,
      "0x00007b64be6ed": 3075,
      "0x00007bc75cf16": 3076,
      "1ac": 3077,
      "32a0": 3078,
      "676": 3079,
      "5b58": 3080,
      "3dd8": 3081,
      "0x000073d90e35": 3082,
      "0x0000712aa4a89220": 3083,
      "0x00007acd6e48c220": 3084,
      "0x00007bf25e489220": 3085,
      "0x00007da9a82cc220": 3086,
      "0x00007e694fd81220": 3087,
      "0x00007bc75cf02220": 3088,
      "0x00007dd733dc2220": 3089,
      "0x00007847380e1220": 3090,
      "0x00007e8549361220": 3091,
      "0x000074952ab6a220": 3092,
      "0x0000719086e58220": 3093,
      "0x00007acf79f70220": 3094,
      "0x00007e7d823ea220": 3095,
      "0x00007638c21b4220": 3096,
      "0x0000741af12da220": 3097,
      "0x00007287ef3d8220": 3098,
      "0x00007557cc190220": 3099,
      "0x000072c5fada4220": 3100,
      "0x00007762b88f1220": 3101,
      "0x00007ad029753220": 3102,
      "0x00007bfcbbc93220": 3103,
      "0x00007b64be6db220": 3104,
      "0x00007837de811220": 3105,
      "0x000077402447f220": 3106,
      "0x00007455c4e87220": 3107,
      "0x00007dc77478d220": 3108,
      "0x000073d90e359220": 3109,
      "2b2": 3110,
      "5b70": 3111,
      "0x00007287ef3d2": 3112,
      "a7": 3113,
      "5340": 3114,
      "c00": 3115,
      "fd70": 3116,
      "0x000073d90e3533": 3117,
      "93b4": 3118,
      "930": 3119,
      "0x00007455c4e9": 3120,
      "1be": 3121,
      "7fa8": 3122,
      "b90": 3123,
      "dfa8": 3124,
      "5fa8": 3125,
      "0x00007acf79f5a0": 3126,
      "0x00007acd6e4760": 3127,
      "0x00007da9a82b60": 3128,
      "0x00007dc7747770": 3129,
      "5a30": 3130,
      "0x00007740244690": 3131,
      "0x0000741af12c40": 3132,
      "0x00007e7d823d40": 3133,
      "0x00007bf25e4730": 3134,
      "0x000073d90e3430": 3135,
      "0x00007455c4e710": 3136,
      "0x00007bfcbbc7d0": 3137,
      "0x00007557cc17a0": 3138,
      "0x00007762b88db0": 3139,
      "0x00007e694fd6b0": 3140,
      "0x00007e854934b0": 3141,
      "0x00007bc75ceec0": 3142,
      "0x000072c5fad8e0": 3143,
      "0x00007b64be6c50": 3144,
      "0x0000719086e420": 3145,
      "0x00007287ef3c20": 3146,
      "1fa8": 3147,
      "0x000074952ab540": 3148,
      "5d1f": 3149,
      "0x00007da9a82dea": 3150,
      "0x00007acd6e49ea": 3151,
      "090": 3152,
      "b0c": 3153,
      "5398": 3154,
      "bd70": 3155,
      "0x00007455c4e816": 3156,
      "0x000074952ab7cb": 3157,
      "0x0000741af12ecb": 3158,
      "0x00007e7d823fcb": 3159,
      "0x00007762b88e8": 3160,
      "0x0000712aa4a84": 3161,
      "0x00007bf25e484": 3162,
      "0x00007acf79f82a": 3163,
      "0x00007557cc1a2a": 3164,
      "0x00007dc77479fb": 3165,
      "631": 3166,
      "c20": 3167,
      "0x00007dd733dd": 3168,
      "0x00007557cc1a4": 3169,
      "1cd0": 3170,
      "9cd0": 3171,
      "dcd0": 3172,
      "0x00007bc75cee0": 3173,
      "3a0": 3174,
      "4cd0": 3175,
      "3cd0": 3176,
      "add0": 3177,
      "0x0000741af12caa": 3178,
      "0x00007e7d823daa": 3179,
      "6af0": 3180,
      "0x00007bfcbbc83a": 3181,
      "0x00007ad029743a": 3182,
      "2200": 3183,
      "960": 3184,
      "0x00007bc75cede": 3185,
      "b1": 3186,
      "0x00007dd733da0": 3187,
      "0x00007e694fd5d": 3188,
      "0x00007557cc18a340": 3189,
      "0x00007837de80c": 3190,
      "0x00007837de80b340": 3191,
      "0x00007837de80b641": 3192,
      "0x00007847380dc": 3193,
      "0x00007847380db340": 3194,
      "0x00007847380db641": 3195,
      "0x00007e854935b340": 3196,
      "0x00007e854935b641": 3197,
      "0x00007e694fd7b340": 3198,
      "0x00007e694fd7b641": 3199,
      "0x00007762b88ec": 3200,
      "0x00007837dd": 3201,
      "0x0000712aa4a83340": 3202,
      "0x0000712aa4a83641": 3203,
      "0x00007287ef3d2340": 3204,
      "0x00007bf25e483340": 3205,
      "0x00007bf25e483641": 3206,
      "0x00007dc774787340": 3207,
      "0x00007b64be6d5340": 3208,
      "0x0000719086e52340": 3209,
      "0x000072c5fad9e641": 3210,
      "0x000072c5fad9e340": 3211,
      "0x00007762b88eb641": 3212,
      "0x00007762b88eb340": 3213,
      "0x0000741af12d4641": 3214,
      "0x0000741af12d4340": 3215,
      "0x00007dd733dbc641": 3216,
      "0x00007dd733dbc340": 3217,
      "0x00007e7d823e4641": 3218,
      "0x00007e7d823e4340": 3219,
      "0x00007acf79f6a641": 3220,
      "0x00007acf79f6a340": 3221,
      "0x00007638c21ae641": 3222,
      "0x00007638c21ae340": 3223,
      "0x00007bc75cefc641": 3224,
      "0x00007bc75cefc340": 3225,
      "0x00007bfcbbc8d641": 3226,
      "0x00007bfcbbc8d340": 3227,
      "0x00007ad02974d641": 3228,
      "0x00007ad02974d340": 3229,
      "0x000074952ab64641": 3230,
      "0x000074952ab64340": 3231,
      "0x00007acd6e486641": 3232,
      "0x00007acd6e486340": 3233,
      "0x00007da9a82c6641": 3234,
      "0x00007da9a82c6340": 3235,
      "0x0000774024479641": 3236,
      "0x0000774024479340": 3237,
      "0x000073d90e353641": 3238,
      "0x00007557cc18a641": 3239,
      "0x00007dc774787641": 3240,
      "0x00007b64be6d5641": 3241,
      "0x00007455c4e81340": 3242,
      "0x0000719086e52641": 3243,
      "0x00007287ef3d2641": 3244,
      "0x000073d90e353340": 3245,
      "0x00007455c4e81641": 3246,
      "0x00007dc774784": 3247,
      "0x00007837de7ef": 3248,
      "0x00007557cc16e": 3249,
      "0x00007bc75cf14b": 3250,
      "0x0000719086e5b": 3251,
      "0x00007acf79f4e": 3252,
      "0x00007762b88cd": 3253,
      "0x00007837de7ed": 3254,
      "0x00007e7d823c8": 3255,
      "aaf0": 3256,
      "0x000077402445d": 3257,
      "2a4873": 3258,
      "219e10": 3259,
      "1b58": 3260,
      "2c70": 3261,
      "0x000074952ab5c": 3262,
      "0x000074952ab48": 3263,
      "0x00007e694fd60": 3264,
      "0x00007455c4e79": 3265,
      "0x0000712aa4a68": 3266,
      "0x00007837de7f0": 3267,
      "f430": 3268,
      "0x00007bf25e468": 3269,
      "12a3": 3270,
      "3e0": 3271,
      "b50": 3272,
      "942c": 3273,
      "248": 3274,
      "0x00007dc77476b": 3275,
      "0x000072c5fad99": 3276,
      "0x00007e694fd78": 3277,
      "0x00007762b88c": 3278,
      "0x00007b64be6d0": 3279,
      "0x00007455c4e7c": 3280,
      "0x00007dc774771d70": 3281,
      "0x00007ad029748": 3282,
      "0x0000774024463d70": 3283,
      "0x00007bfcbbc88": 3284,
      "0x00007e8549358": 3285,
      "0x00007762b88d5d70": 3286,
      "0x00007e694fd65d70": 3287,
      "0x00007e8549345d70": 3288,
      "0x00007847380c5d70": 3289,
      "0x00007455c4e6bd70": 3290,
      "0x00007837de7f5d70": 3291,
      "0x000073d90e338": 3292,
      "0x00007b64be6bfd70": 3293,
      "0x000072c5fad88d70": 3294,
      "0x00007acd6e470d70": 3295,
      "0x00007da9a82b0d70": 3296,
      "0x000073d90e33dd70": 3297,
      "0x0000741af12bed70": 3298,
      "0x00007638c2198d70": 3299,
      "0x00007bc75cee6d70": 3300,
      "0x00007dd733da6d70": 3301,
      "0x00007acf79f54d70": 3302,
      "0x00007e7d823ced70": 3303,
      "0x000074952ab4ed70": 3304,
      "0x00007287ef3bcd70": 3305,
      "0x00007bf25e46dd70": 3306,
      "0x0000712aa4a6dd70": 3307,
      "0x00007557cc174d70": 3308,
      "0x0000719086e3cd70": 3309,
      "0x00007bfcbbc77d70": 3310,
      "0x00007ad029737d70": 3311,
      "29ed": 3312,
      "e1": 3313,
      "f10": 3314,
      "0x00007dc77476f": 3315,
      "0x00007e694fd5f": 3316,
      "0x00007e8549364": 3317,
      "0x0000774024474": 3318,
      "0x00007ad029765": 3319,
      "0x00007762b88d0": 3320,
      "0x00007ad029758": 3321,
      "0x000073d90d819da8": 3322,
      "0x00007e8548819da8": 3323,
      "0x00007bc75c419da8": 3324,
      "0x00007bf25da19da8": 3325,
      "0x00007ad028c19da8": 3326,
      "0x00007dc773c19da8": 3327,
      "0x0000784737619da8": 3328,
      "0x00007acd6da19da8": 3329,
      "0x00007acf79419da8": 3330,
      "0x0000712aa4019da8": 3331,
      "0x00007762b7e19da8": 3332,
      "0x00007287ee819da8": 3333,
      "0x00007e7d81c19da8": 3334,
      "0x00007638c1619da8": 3335,
      "0x00007455c4419da8": 3336,
      "0x00007da9a7819da8": 3337,
      "0x0000741af0819da8": 3338,
      "0x00007837ddc19da8": 3339,
      "0x00007557cb619da8": 3340,
      "0x00007b64bdc19da8": 3341,
      "0x0000774023a19da8": 3342,
      "0x0000719086419da8": 3343,
      "0x000074952a019da8": 3344,
      "0x00007dd733219da8": 3345,
      "0x00007bfcbb219da8": 3346,
      "0x000072c5fa219da8": 3347,
      "0x00007e694f219da8": 3348,
      "03a": 3349,
      "20000000": 3350,
      "b20": 3351,
      "b2c3": 3352,
      "cn": 3353,
      "tz": 3354,
      "vpmovmskb": 3355,
      "ff8": 3356,
      "0x200": 3357,
      "0x32": 3358,
      "0x20000000": 3359,
      "0xffffff08": 3360,
      "0x000000000000000a": 3361,
      "0x00000040": 3362,
      "0x000000ee": 3363,
      "0x00000011": 3364,
      "0x00000032": 3365,
      "0x000": 3366,
      "0x004": 3367,
      "0x0000000d": 3368,
      "0x0000000103a": 3369,
      "476b0": 3370,
      "0x000002b0": 3371,
      "0x000003d8": 3372,
      "0x00000470": 3373,
      "28e4": 3374,
      "269": 3375,
      "0x00000330": 3376,
      "5f6": 3377,
      "0x0000719086e6": 3378,
      "0x00007acf79f68": 3379,
      "0x00000488": 3380,
      "0x00000430": 3381,
      "01000": 3382,
      "bsr": 3383,
      "0xfffffb30": 3384,
      "0xfffffb48": 3385,
      "b66e": 3386,
      "66d": 3387,
      "0xfffffdd0": 3388,
      "0xfffffdc4": 3389,
      "0xfffffdf0": 3390,
      "0x00007acf79f84": 3391,
      "0xfffffee8": 3392,
      "0xfffffed0": 3393,
      "0xfffffec8": 3394,
      "0xfffffeb": 3395,
      "0xfffffde8": 3396,
      "0x00007da9a82ae": 3397,
      "0x7fff": 3398,
      "0x00000108": 3399,
      "e75f6": 3400,
      "cnt": 3401,
      "tzcnt": 3402,
      "0x20001000": 3403,
      "0x0000000103ae75f6": 3404,
      "28e4e": 3405,
      "455": 3406,
      "514": 3407,
      "3dd0": 3408,
      "6430": 3409,
      "0x00007ad02972": 3410,
      "0x0000741af12b8": 3411,
      "0x00007287ef3d0": 3412,
      "0x00007847380c0": 3413,
      "0x0000719086e50": 3414,
      "0x00007acd6e47b6": 3415,
      "0x00007da9a82bb6": 3416,
      "0x00007638c21ac": 3417,
      "0x000073d90e350": 3418,
      "0x0000712aa4a9b": 3419,
      "0x000073d90e36b": 3420,
      "0x00007bf25e49b": 3421,
      "43": 3422,
      "71": 3423,
      "a88": 3424,
      "e48": 3425,
      "f6": 3426,
      "701": 3427,
      "fb8": 3428,
      "0x00007e854933f": 3429,
      "5b5": 3430,
      "5b64c": 3431,
      "5b631": 3432,
      "5b66d": 3433,
      "0x0000719086e4f": 3434,
      "0x00007287ef3cf": 3435,
      "1ca40": 3436,
      "ff0": 3437,
      "2090": 3438,
      "cb00": 3439,
      "0x00007847380b": 3440,
      "0x00007e694fd73": 3441,
      "0x00007e8549340": 3442,
      "798": 3443,
      "a430": 3444,
      "2430": 3445,
      "1d5": 3446,
      "0x00007b64be6ef": 3447,
      "0x00007acf79f82b": 3448,
      "0x00007557cc1a2b": 3449,
      "325": 3450,
      "0x00007dd733dc7": 3451,
      "0x00007bfcbbc98": 3452,
      "0x00007557cc188": 3453,
      "0x000073d90e35c": 3454,
      "0x00007837de816": 3455,
      "de6": 3456,
      "0x0000719086e69": 3457,
      "0x00007455c4e98": 3458,
      "0x00007ad029764": 3459,
      "0x00007bfcbbca4": 3460,
      "0x00007e7d823fb": 3461,
      "0x0000741af12eb": 3462,
      "0x000073d90e36a": 3463,
      "0x0000774024490": 3464,
      "d66": 3465,
      "2d50": 3466,
      "0x00007e694f0a1a70": 3467,
      "0x00007740238a1a70": 3468,
      "0x00007bf25d8a1a70": 3469,
      "0x000072c5fa0a1a70": 3470,
      "0x00007bfcbb0a1a70": 3471,
      "0x00007dd7330a1a70": 3472,
      "0x00007acd6d8a1a70": 3473,
      "0x00007e7d81aa1a70": 3474,
      "0x00007762b7ca1a70": 3475,
      "0x00007638c14a1a70": 3476,
      "0x00007847374a1a70": 3477,
      "0x00007557cb4a1a70": 3478,
      "0x00007b64bdaa1a70": 3479,
      "0x00007837ddaa1a70": 3480,
      "b9c": 3481,
      "0x0000712aa3ea1a70": 3482,
      "0x0000749529ea1a70": 3483,
      "0x00007455c42a1a70": 3484,
      "0x00007bc75c2a1a70": 3485,
      "0x00007acf792a1a70": 3486,
      "0x00007190862a1a70": 3487,
      "0x0000741af06a1a70": 3488,
      "0x00007e85486a1a70": 3489,
      "0x00007287ee6a1a70": 3490,
      "0x00007da9a76a1a70": 3491,
      "0x000073d90d6a1a70": 3492,
      "0x00007ad028aa1a70": 3493,
      "0x00007dc773aa1a70": 3494,
      "1ca58": 3495,
      "7a0": 3496,
      "ab58": 3497,
      "db58": 3498,
      "a89": 3499,
      "0x0000741af12cc": 3500,
      "0x00007e7d823dc": 3501,
      "0x00007bfcbbc6": 3502,
      "0x00007e7d823ef": 3503,
      "35a9": 3504,
      "db0": 3505,
      "c48": 3506,
      "0x00007847380d8": 3507,
      "3630": 3508,
      "0x00007e7d823c6": 3509,
      "0x00007bf25e480": 3510,
      "0x0000741af12b6": 3511,
      "2d21": 3512,
      "0x00007ad029767": 3513,
      "37e": 3514,
      "0x00007638c21a5c": 3515,
      "0x00007b64be6cd": 3516,
      "0x00007bfcbbca7": 3517,
      "0x00007455c4e7f": 3518,
      "0x00007837de808": 3519,
      "2a3b": 3520,
      "1278": 3521,
      "148b": 3522,
      "448b": 3523,
      "7fd8": 3524,
      "9278": 3525,
      "b48b": 3526,
      "dfd8": 3527,
      "e6": 3528,
      "580": 3529,
      "90278": 3530,
      "5fd8": 3531,
      "248b": 3532,
      "0x0000741af12ca9fc": 3533,
      "0x00007e7d823da9fc": 3534,
      "0x00007455c4e7e": 3535,
      "9d09": 3536,
      "0x00007837de8019fc": 3537,
      "0x00007847380d19fc": 3538,
      "0x00007e85493519fc": 3539,
      "0x00007e694fd719fc": 3540,
      "0x00007762b88e19fc": 3541,
      "0x00007acf79f609fc": 3542,
      "0x000072c5fad949fc": 3543,
      "0x00007b64be6cb9fc": 3544,
      "0x0000712aa4a799fc": 3545,
      "0x00007557cc1809fc": 3546,
      "0x00007638c21a49fc": 3547,
      "0x0000719086e489fc": 3548,
      "0x00007287ef3c89fc": 3549,
      "0x000077402446f9fc": 3550,
      "0x00007dc77477d9fc": 3551,
      "0x00007e7d823cc": 3552,
      "0x000074952ab4c": 3553,
      "1fd8": 3554,
      "0x00007acd6e47c9fc": 3555,
      "0x00007bf25e4799fc": 3556,
      "0x000073d90e3499fc": 3557,
      "0x00007da9a82bc9fc": 3558,
      "0x0000741af12bc": 3559,
      "7278": 3560,
      "1d09": 3561,
      "0x000074952ab5a9fc": 3562,
      "0x00007ad0297439fc": 3563,
      "0x00007bfcbbc839fc": 3564,
      "3d09": 3565,
      "a48b": 3566,
      "0x00007ad029765b": 3567,
      "0x00007455c4e779fc": 3568,
      "0x00007bfcbbca5b": 3569,
      "0x00007bc75cef29fc": 3570,
      "0x00007dd733db29fc": 3571,
      "92c0": 3572,
      "0x000074952ab60": 3573,
      "0x00007bc75cef8": 3574,
      "12b0": 3575,
      "32cd": 3576,
      "9c0": 3577,
      "d98": 3578,
      "22c0": 3579,
      "b21": 3580,
      "001": 3581,
      "0x000077402446fd": 3582,
      "6a0": 3583,
      "0x00007762b88d5360": 3584,
      "0x00007e694fd65360": 3585,
      "0x00007e8549345360": 3586,
      "0x00007bfcbbc82": 3587,
      "0x00007ad029742": 3588,
      "0x00007847380c5360": 3589,
      "0x00007837de7f5360": 3590,
      "0x000073d90e337": 3591,
      "0x000072c5fad88360": 3592,
      "0x00007acd6e470360": 3593,
      "0x00007da9a82b0360": 3594,
      "0x000073d90e33d360": 3595,
      "0x0000741af12be360": 3596,
      "0x00007638c2198360": 3597,
      "0x00007bc75cee6360": 3598,
      "0x00007dd733da6360": 3599,
      "0x00007455c4e6b360": 3600,
      "0x00007acf79f54360": 3601,
      "0x00007e7d823ce360": 3602,
      "0x000074952ab4e360": 3603,
      "0x00007287ef3bc360": 3604,
      "0x00007bf25e46d360": 3605,
      "0x0000712aa4a6d360": 3606,
      "0x00007557cc174360": 3607,
      "0x0000719086e3c360": 3608,
      "0x00007dc774771360": 3609,
      "0x0000774024463360": 3610,
      "0x00007bfcbbc77360": 3611,
      "0x00007ad029737360": 3612,
      "0x00007b64be6bf360": 3613,
      "86": 3614,
      "1a90": 3615,
      "9418": 3616,
      "0x00007acd6e47e": 3617,
      "0x00007dc77477f": 3618,
      "0x0000712aa4a80": 3619,
      "59d8": 3620,
      "388": 3621,
      "d0b": 3622,
      "0x00007bc75cef4": 3623,
      "0x00007dd733db4": 3624,
      "0x00007557cc18b": 3625,
      "0x00007acf79f6b": 3626,
      "7fff": 3627,
      "0x00007dc774790": 3628,
      "0x0000719086e37": 3629,
      "0x0000719086e5d": 3630,
      "0x000072c5fada9": 3631,
      "b08": 3632,
      "0x00007287ef3b6": 3633,
      "0x00007e8549366": 3634,
      "0x00007837de814": 3635,
      "0x00007557cc195": 3636,
      "be78": 3637,
      "0x0000719086e53": 3638,
      "0x00007acf79f75": 3639,
      "0x00007557cc17a5": 3640,
      "0x00007638c21b9": 3641,
      "0x000073d90e35e": 3642,
      "1da4": 3643,
      "0x00007bf25e46b": 3644,
      "0x0000712aa4a6b": 3645,
      "b6b0": 3646,
      "0x000073d90e33b": 3647,
      "0x00007287ef3dd": 3648,
      "0x00007455c4e8c": 3649,
      "0x00007b64be6e0": 3650,
      "0x0000774024484": 3651,
      "498": 3652,
      "516": 3653,
      "cbb": 3654,
      "e010": 3655,
      "8090": 3656,
      "0x00007638c21a6": 3657,
      "0x00007bc75cf07": 3658,
      "0x000072c5fad96": 3659,
      "0x000074952ab7b": 3660,
      "0x00007847380e4": 3661,
      "0x00007762b88f4": 3662,
      "0x0000719086e42558": 3663,
      "0x00007287ef3c2558": 3664,
      "0x00007847380cb558": 3665,
      "0x00007ad02973d558": 3666,
      "0x00007837de7fb558": 3667,
      "0x00007dd733dac558": 3668,
      "0x000074952ab54558": 3669,
      "0x00007e694fd6b558": 3670,
      "0x00007e854934b558": 3671,
      "0x00007762b88db558": 3672,
      "0x0000712aa4a73558": 3673,
      "0x00007e7d823d4558": 3674,
      "0x0000741af12c4558": 3675,
      "0x00007bc75ceec558": 3676,
      "0x00007bfcbbc7d558": 3677,
      "0x00007acd6e476558": 3678,
      "0x00007da9a82b6558": 3679,
      "0x00007acf79f5a558": 3680,
      "0x000072c5fad8e558": 3681,
      "0x00007bf25e473558": 3682,
      "0x000073d90e343558": 3683,
      "0x00007455c4e71558": 3684,
      "0x00007dc774777558": 3685,
      "0x00007dc774792": 3686,
      "0x00007638c219e558": 3687,
      "0x00007b64be6c5558": 3688,
      "0x0000774024469558": 3689,
      "0x00007557cc17a558": 3690,
      "974": 3691,
      "cb7": 3692,
      "808": 3693,
      "0x00007ad029745": 3694,
      "20d": 3695,
      "0x00007dc77477ec": 3696,
      "0x00007bf25e47ad": 3697,
      "0x000073d90e34ad": 3698,
      "0x00007bfcbbc85": 3699,
      "0x00007b64be6ccc": 3700,
      "0x00007b64be6b9": 3701,
      "0x0000712aa4a7ad": 3702,
      "7f0": 3703,
      "8be": 3704,
      "ba0": 3705,
      "adc": 3706,
      "7c90": 3707,
      "533d": 3708,
      "5b1": 3709,
      "36b0": 3710,
      "0x0000719086e4a": 3711,
      "0x00007287ef3ca": 3712,
      "5003": 3713,
      "0x000073d909ffb403": 3714,
      "0x000073d909ffb331": 3715,
      "0x00007e8544ffb403": 3716,
      "0x00007e8544ffb331": 3717,
      "0x00007dd72f9fb403": 3718,
      "0x00007dd72f9fb331": 3719,
      "0x00007e694b9fb403": 3720,
      "0x00007e694b9fb331": 3721,
      "0x0000719082bfb403": 3722,
      "0x0000719082bfb331": 3723,
      "0x000072c5f69fb403": 3724,
      "0x000072c5f69fb331": 3725,
      "0x00007da9a3ffb403": 3726,
      "0x00007da9a3ffb331": 3727,
      "0x0000741aecffb403": 3728,
      "0x0000741aecffb331": 3729,
      "0x00007bfcb79fb403": 3730,
      "0x00007bfcb79fb331": 3731,
      "0x00007287eaffb403": 3732,
      "0x00007287eaffb331": 3733,
      "0x00007b64ba3fb403": 3734,
      "0x00007b64ba3fb331": 3735,
      "0x00007acf75bfb403": 3736,
      "0x00007acf75bfb331": 3737,
      "0x0000784733dfb403": 3738,
      "0x0000784733dfb331": 3739,
      "0x00007638bddfb403": 3740,
      "0x00007638bddfb331": 3741,
      "0x00007557c7dfb403": 3742,
      "0x00007557c7dfb331": 3743,
      "0x00007762b45fb403": 3744,
      "0x00007762b45fb331": 3745,
      "0x00007ad0253fb403": 3746,
      "0x00007ad0253fb331": 3747,
      "0x00007bc758bfb403": 3748,
      "0x00007bc758bfb331": 3749,
      "0x00007dc7703fb403": 3750,
      "0x00007dc7703fb331": 3751,
      "0x00007495267fb403": 3752,
      "0x00007495267fb331": 3753,
      "0x00007e7d7e3fb403": 3754,
      "0x00007e7d7e3fb331": 3755,
      "0x0000712aa07fb403": 3756,
      "0x0000712aa07fb331": 3757,
      "0x00007455c0bfb403": 3758,
      "0x00007455c0bfb331": 3759,
      "0x00007837da3fb403": 3760,
      "0x00007837da3fb331": 3761,
      "0x00007740201fb403": 3762,
      "0x00007740201fb331": 3763,
      "0x00007bf25a1fb403": 3764,
      "0x00007bf25a1fb331": 3765,
      "0x00007acd6a1fb403": 3766,
      "0x00007acd6a1fb331": 3767,
      "68ce30": 3768,
      "290": 3769,
      "1090": 3770,
      "46b0": 3771,
      "5a64": 3772,
      "7430": 3773,
      "225": 3774,
      "32byte": 3775,
      "c10": 3776,
      "dff": 3777,
      "er": 3778,
      "ero": 3779,
      "f30": 3780,
      "no": 3781,
      "pp": 3782,
      "pand": 3783,
      "upp": 3784,
      "vz": 3785,
      "vpxor": 3786,
      "0x4": 3787,
      "0x8c": 3788,
      "0x5003": 3789,
      "0x00001000": 3790,
      "0x000081": 3791,
      "ad4": 3792,
      "0xffff7fff": 3793,
      "0xfffffff7": 3794,
      "0xffffffdf": 3795,
      "0x0000000000000048": 3796,
      "0x000000000000000b": 3797,
      "0x00000080": 3798,
      "0x0000007f": 3799,
      "ea7": 3800,
      "0x0b": 3801,
      "0x078": 3802,
      "0x0041": 3803,
      "0x00980": 3804,
      "0x0000000e": 3805,
      "0x000006": 3806,
      "0x00000a00": 3807,
      "0x00000160": 3808,
      "239": 3809,
      "201": 3810,
      "shrd": 3811,
      "0x000003b0": 3812,
      "0x000003f4": 3813,
      "0x00007bc75ced": 3814,
      "0x00007acf79f73": 3815,
      "0x000002f0": 3816,
      "21ac0": 3817,
      "0xfffffb90": 3818,
      "0xfffffbc0": 3819,
      "0x0000719086e3e": 3820,
      "27d": 3821,
      "0xfffffd58": 3822,
      "2008": 3823,
      "0x00007b64be6edb": 3824,
      "0x0000712aa4a9bb": 3825,
      "0x00000178": 3826,
      "0x000073d90e36bb": 3827,
      "0x0000774024491b": 3828,
      "0x00007bf25e49bb": 3829,
      "0x00000000000003c8": 3830,
      "0x00007638c21c6b": 3831,
      "0x6fffffff": 3832,
      "0x6fffff41": 3833,
      "0x6ffffdff": 3834,
      "0000022": 3835,
      "0x000002ba": 3836,
      "ffffffffffff": 3837,
      "0x70000022": 3838,
      "0x0000000000000110": 3839,
      "0x8000000": 3840,
      "19f70": 3841,
      "0x6ffffeff": 3842,
      "0x73516": 3843,
      "0x00400000": 3844,
      "0xfffffeb8": 3845,
      "eroupp": 3846,
      "not": 3847,
      "vzeroupp": 3848,
      "0x50030000": 3849,
      "0x00008100": 3850,
      "0x07800000": 3851,
      "0x00410000": 3852,
      "0x00980201": 3853,
      "0x73516240": 3854,
      "vzeroupper": 3855,
      "472": 3856,
      "2ab": 3857,
      "3090": 3858,
      "0x00007bfcbbc8e": 3859,
      "0x00007ad02974e": 3860,
      "0x0000741af12d0": 3861,
      "a38": 3862,
      "5f0": 3863,
      "0x00007847380bf": 3864,
      "0x00007762b88cf": 3865,
      "0x00007b64be6c7": 3866,
      "0x00007287ef3e9": 3867,
      "0x0000774024471": 3868,
      "0x00007557cc17c": 3869,
      "870": 3870,
      "b40": 3871,
      "c50": 3872,
      "d1e": 3873,
      "d88": 3874,
      "9090": 3875,
      "fbd": 3876,
      "0x00007e7d81b": 3877,
      "0x00007455c4e73": 3878,
      "0x00007762b88d5800": 3879,
      "0x00007e694fd65800": 3880,
      "0x00007e8549345800": 3881,
      "0x00007847380c5800": 3882,
      "0x00007837de7f5800": 3883,
      "0x00007bf25e46d800": 3884,
      "0x0000712aa4a6d800": 3885,
      "0x00007837ddb": 3886,
      "0x000072c5fad88800": 3887,
      "0x00007acd6e470800": 3888,
      "0x00007da9a82b0800": 3889,
      "0x000073d90e33d800": 3890,
      "0x0000741af12be800": 3891,
      "0x00007acf79f54800": 3892,
      "0x00007287ef3bc800": 3893,
      "0x00007acd6e48c": 3894,
      "0x00007da9a82cc": 3895,
      "0x00007e7d823ce800": 3896,
      "0x000074952ab4e800": 3897,
      "0x0000774024463800": 3898,
      "0x00007b64be6bf800": 3899,
      "68ce9c": 3900,
      "0x00007dc774771800": 3901,
      "0x00007638c2198800": 3902,
      "0x00007bfcbbc77800": 3903,
      "0x00007557cc174800": 3904,
      "0x00007bc75cee6800": 3905,
      "0x00007455c4e6b800": 3906,
      "0x00007dd733da6800": 3907,
      "0x00007ad029737800": 3908,
      "0x0000719086e3c800": 3909,
      "0x00007dd733dd3": 3910,
      "0x00007bf25e4733a8": 3911,
      "0x000073d90e3433a8": 3912,
      "0x00007bfcbb21ac80": 3913,
      "0x00007837de7fd": 3914,
      "0x00007557cc17a3": 3915,
      "0x000072c5fad8eb": 3916,
      "0x000072c5fad8eac0": 3917,
      "53a8": 3918,
      "0x00007b64be6c53a8": 3919,
      "0x0000719086e42ac0": 3920,
      "0x00007287ef3c2ac0": 3921,
      "0x00007638c219eac0": 3922,
      "0x00007847380cbac0": 3923,
      "0x00007847380cb3a8": 3924,
      "0x00007ad02973dac0": 3925,
      "0x00007ad02973d3a8": 3926,
      "0x00007837de7fbac0": 3927,
      "0x00007837de7fb3a8": 3928,
      "0x00007dd733dacac0": 3929,
      "0x00007dd733dac3a8": 3930,
      "0x000074952ab54ac0": 3931,
      "0x000074952ab543a8": 3932,
      "0x00007e694fd6bac0": 3933,
      "0x00007e694fd6b3a8": 3934,
      "0x00007e854934bac0": 3935,
      "0x00007e854934b3a8": 3936,
      "0x00007762b88dbac0": 3937,
      "0x00007762b88db3a8": 3938,
      "0x0000712aa4a73ac0": 3939,
      "0x0000712aa4a733a8": 3940,
      "0x00007e7d823d4ac0": 3941,
      "0x00007e7d823d43a8": 3942,
      "0x0000741af12c4ac0": 3943,
      "0x0000741af12c43a8": 3944,
      "0x00007bc75ceecac0": 3945,
      "0x00007bc75ceec3a8": 3946,
      "0x0000774024469ac0": 3947,
      "0x00007740244693a8": 3948,
      "0x00007638c219e3a8": 3949,
      "0x00007bfcbbc7dac0": 3950,
      "0x00007bfcbbc7d3a8": 3951,
      "0x00007acd6e476ac0": 3952,
      "0x00007acd6e4763a8": 3953,
      "0x00007da9a82b6ac0": 3954,
      "0x00007da9a82b63a8": 3955,
      "0x00007acf79f5aac0": 3956,
      "0x00007acf79f5a3a8": 3957,
      "0x000072c5fad8e3a8": 3958,
      "0x00007bf25e473ac0": 3959,
      "0x000073d90e343ac0": 3960,
      "0x00007455c4e71ac0": 3961,
      "0x00007455c4e713a8": 3962,
      "0x00007e694f0a4495": 3963,
      "0x00007740238a4495": 3964,
      "0x00007bf25d8a4495": 3965,
      "0x000072c5fa0a4495": 3966,
      "0x00007bfcbb0a4495": 3967,
      "0x00007dd7330a4495": 3968,
      "0x00007acd6d8a4495": 3969,
      "0x00007b64be6c5ac0": 3970,
      "0x00007e7d81aa4495": 3971,
      "0x00007762b7ca4495": 3972,
      "0x00007557cc17aac0": 3973,
      "0x00007638c14a4495": 3974,
      "0x00007847374a4495": 3975,
      "0x00007557cb4a4495": 3976,
      "0x00007b64bdaa4495": 3977,
      "0x00007837ddaa4495": 3978,
      "0x0000719086e423a8": 3979,
      "0x00007287ef3c23a8": 3980,
      "0x00007dc7747773a8": 3981,
      "0x0000712aa3ea4495": 3982,
      "0x0000749529ea4495": 3983,
      "0x00007455c42a4495": 3984,
      "0x00007bc75c2a4495": 3985,
      "0x00007acf792a4495": 3986,
      "0x00007190862a4495": 3987,
      "0x00007bc75cf13": 3988,
      "0x00007dc774777ac0": 3989,
      "0x000073d90d6a4495": 3990,
      "0x00007ad028aa4495": 3991,
      "0x00007dc773aa4495": 3992,
      "0x00007da9a76a4495": 3993,
      "0x0000741af06a4495": 3994,
      "0x00007e85486a4495": 3995,
      "0x00007287ee6a4495": 3996,
      "0x000072c5fa21ac80": 3997,
      "0x00007e694f21ac80": 3998,
      "0x000073d90d81ac80": 3999,
      "0x00007e854881ac80": 4000,
      "0x00007bc75c41ac80": 4001,
      "0x00007bf25da1ac80": 4002,
      "0x00007ad028c1ac80": 4003,
      "0x00007dc773c1ac80": 4004,
      "0x000078473761ac80": 4005,
      "0x00007acd6da1ac80": 4006,
      "0x00007acf7941ac80": 4007,
      "0x0000712aa401ac80": 4008,
      "0x00007762b7e1ac80": 4009,
      "0x00007287ee81ac80": 4010,
      "0x00007e7d81c1ac80": 4011,
      "0x00007638c161ac80": 4012,
      "0x00007455c441ac80": 4013,
      "0x00007da9a781ac80": 4014,
      "0x0000741af081ac80": 4015,
      "0x00007837ddc1ac80": 4016,
      "0x00007557cb61ac80": 4017,
      "0x00007b64bdc1ac80": 4018,
      "0x0000774023a1ac80": 4019,
      "0x00007dd73321ac80": 4020,
      "0x000074952a01ac80": 4021,
      "0x000071908641ac80": 4022,
      "0x00007557cc17a3a8": 4023,
      "e9a": 4024,
      "0x00007dc77479e": 4025,
      "0x00007dc7747a1": 4026,
      "b090": 4027,
      "33b4": 4028,
      "0x00007bf25e46f": 4029,
      "0x0000712aa4a6f": 4030,
      "0x000073d90e33f": 4031,
      "aa0": 4032,
      "23b4": 4033,
      "0x00007dc774779": 4034,
      "0x000072c5fad90": 4035,
      "0x00007acd6e476ab0": 4036,
      "0x00007da9a82b6ab0": 4037,
      "0x0000741af12c4737": 4038,
      "0x00007e7d823d4737": 4039,
      "0x00007bf25e473ab0": 4040,
      "0x000073d90e343ab0": 4041,
      "6a30": 4042,
      "0x00007bc75ceec737": 4043,
      "0x00007638c21a0": 4044,
      "0x000072c5fad8eab0": 4045,
      "0x00007dd733dac737": 4046,
      "0x0000719086e42ab0": 4047,
      "0x0000719086e42737": 4048,
      "0x00007287ef3c2ab0": 4049,
      "0x00007287ef3c2737": 4050,
      "0x00007638c219eab0": 4051,
      "0x00007847380cb737": 4052,
      "0x00007847380cbab0": 4053,
      "0x00007ad02973d737": 4054,
      "0x00007ad02973dab0": 4055,
      "0x00007837de7fb737": 4056,
      "0x00007837de7fbab0": 4057,
      "0x00007dd733dacab0": 4058,
      "0x000074952ab54ab0": 4059,
      "0x00007e694fd6b737": 4060,
      "0x00007e694fd6bab0": 4061,
      "0x00007e854934b737": 4062,
      "0x00007e854934bab0": 4063,
      "0x00007762b88db737": 4064,
      "0x00007762b88dbab0": 4065,
      "0x0000712aa4a73737": 4066,
      "0x0000712aa4a73ab0": 4067,
      "0x00007e7d823d4ab0": 4068,
      "0x0000741af12c4ab0": 4069,
      "0x00007bc75ceecab0": 4070,
      "0x0000774024469737": 4071,
      "0x0000774024469ab0": 4072,
      "0x00007638c219e737": 4073,
      "0x00007bfcbbc7d737": 4074,
      "0x00007acd6e476737": 4075,
      "0x00007da9a82b6737": 4076,
      "0x00007acf79f5a737": 4077,
      "0x00007acf79f5aab0": 4078,
      "0x000072c5fad8e737": 4079,
      "0x00007bf25e473737": 4080,
      "0x000073d90e343737": 4081,
      "0x00007455c4e71737": 4082,
      "0x00007b64be6c5737": 4083,
      "0x00007557cc17a737": 4084,
      "0x000074952ab54737": 4085,
      "0x0000712aa4a8e120": 4086,
      "0x00007bf25e48e120": 4087,
      "0x00007e694fd86120": 4088,
      "0x00007da9a82d1120": 4089,
      "0x0000741af12df120": 4090,
      "0x000074952ab6f120": 4091,
      "0x00007dc774777737": 4092,
      "0x00007dc774777ab0": 4093,
      "0x00007847380e6120": 4094,
      "0x00007acd6e491120": 4095,
      "0x00007da9a82aa": 4096,
      "0x00007acd6e46a": 4097,
      "0x00007762b88f6120": 4098,
      "0x00007455c4e71ab0": 4099,
      "0x00007bfcbbc7dab0": 4100,
      "0x00007557cc17aab0": 4101,
      "0x00007b64be6c5ab0": 4102,
      "0x00007ad029758120": 4103,
      "0x00007dd733dc7120": 4104,
      "0x00007bfcbbc98120": 4105,
      "0x00007837de816120": 4106,
      "0x00007e7d823ef120": 4107,
      "0x0000719086e5d120": 4108,
      "0x000072c5fada9120": 4109,
      "0x00007e8549366120": 4110,
      "0x00007557cc195120": 4111,
      "0x00007acf79f75120": 4112,
      "0x00007638c21b9120": 4113,
      "0x000073d90e35e120": 4114,
      "0x00007287ef3dd120": 4115,
      "0x00007455c4e8c120": 4116,
      "0x00007b64be6e0120": 4117,
      "0x0000774024484120": 4118,
      "0x00007bc75cf07120": 4119,
      "0x00007dc774792120": 4120,
      "ea30": 4121,
      "d040": 4122,
      "5418": 4123,
      "9430": 4124,
      "0x00007e694fd5": 4125,
      "0x00007287ef3c4": 4126,
      "0x00007bc75cef3": 4127,
      "0x00007dd733db3": 4128,
      "0x000073d90e351": 4129,
      "0x000073d90d81a3c8": 4130,
      "0x00007e854881a3c8": 4131,
      "0x00007bc75c41a3c8": 4132,
      "0x00007bf25da1a3c8": 4133,
      "0x00007ad028c1a3c8": 4134,
      "0x00007dc773c1a3c8": 4135,
      "0x000078473761a3c8": 4136,
      "0x00007acd6da1a3c8": 4137,
      "0x00007acf7941a3c8": 4138,
      "0x0000712aa401a3c8": 4139,
      "0x00007762b7e1a3c8": 4140,
      "0x00007287ee81a3c8": 4141,
      "0x00007e7d81c1a3c8": 4142,
      "0x00007638c161a3c8": 4143,
      "0x00007455c441a3c8": 4144,
      "0x00007da9a781a3c8": 4145,
      "0x0000741af081a3c8": 4146,
      "0x00007837ddc1a3c8": 4147,
      "0x00007557cb61a3c8": 4148,
      "0x00007b64bdc1a3c8": 4149,
      "0x0000774023a1a3c8": 4150,
      "0x000071908641a3c8": 4151,
      "0x000074952a01a3c8": 4152,
      "0x00007dd73321a3c8": 4153,
      "0x00007bfcbb21a3c8": 4154,
      "0x000072c5fa21a3c8": 4155,
      "0x00007e694f21a3c8": 4156,
      "32c3": 4157,
      "e10": 4158,
      "e20": 4159,
      "fea": 4160,
      "d0d0": 4161,
      "1625": 4162,
      "fd1f": 4163,
      "298": 4164,
      "0x00007dc77476c": 4165,
      "fc2": 4166,
      "0x00007bc75cef3d": 4167,
      "0x00007dd733db3d": 4168,
      "531": 4169,
      "3625": 4170,
      "f92": 4171,
      "b625": 4172,
      "d625": 4173,
      "0x000073d909ffb4b7": 4174,
      "0x00007e8544ffb4b7": 4175,
      "0x00007dd72f9fb4b7": 4176,
      "0x00007e694b9fb4b7": 4177,
      "0x0000719082bfb4b7": 4178,
      "0x000072c5f69fb4b7": 4179,
      "0x00007da9a3ffb4b7": 4180,
      "0x0000741aecffb4b7": 4181,
      "0x00007bfcb79fb4b7": 4182,
      "0x00007287eaffb4b7": 4183,
      "0x00007b64ba3fb4b7": 4184,
      "0x00007acf75bfb4b7": 4185,
      "0x0000784733dfb4b7": 4186,
      "0x00007638bddfb4b7": 4187,
      "0x00007557c7dfb4b7": 4188,
      "0x00007762b45fb4b7": 4189,
      "a625": 4190,
      "0x00007ad0253fb4b7": 4191,
      "0x00007bc758bfb4b7": 4192,
      "0x00007dc7703fb4b7": 4193,
      "0x00007495267fb4b7": 4194,
      "0x00007e7d7e3fb4b7": 4195,
      "0x0000712aa07fb4b7": 4196,
      "0x00007455c0bfb4b7": 4197,
      "0x00007837da3fb4b7": 4198,
      "0x00007740201fb4b7": 4199,
      "0x00007bf25a1fb4b7": 4200,
      "0x00007acd6a1fb4b7": 4201,
      "68ce23": 4202,
      "68cee0": 4203,
      "1da": 4204,
      "970": 4205,
      "a7e": 4206,
      "b98": 4207,
      "f90": 4208,
      "cb70": 4209,
      "0x00007557cc17a51a": 4210,
      "5b8": 4211,
      "0x0000719086e4251a": 4212,
      "0x00007287ef3c251a": 4213,
      "0x0000774024460": 4214,
      "0x00007847380cb51a": 4215,
      "0x00007ad02973d51a": 4216,
      "0x00007837de7fb51a": 4217,
      "0x00007dd733dac51a": 4218,
      "0x000074952ab5451a": 4219,
      "0x00007e694fd6b51a": 4220,
      "0x00007e854934b51a": 4221,
      "0x00007762b88db51a": 4222,
      "0x0000712aa4a7351a": 4223,
      "0x00007e7d823d451a": 4224,
      "0x0000741af12c451a": 4225,
      "0x00007bc75ceec51a": 4226,
      "0x00007bfcbbc7d51a": 4227,
      "0x00007acd6e47651a": 4228,
      "0x00007da9a82b651a": 4229,
      "0x00007acf79f5a51a": 4230,
      "0x000072c5fad8e51a": 4231,
      "0x00007bf25e47351a": 4232,
      "0x000073d90e34351a": 4233,
      "0x00007455c4e7151a": 4234,
      "0x0000774024477": 4235,
      "0x00007acd6e483": 4236,
      "0x00007da9a82c3": 4237,
      "0x00007dc77477751a": 4238,
      "0x00007557cc16c": 4239,
      "0x00007638c219e51a": 4240,
      "0x00007b64be6c551a": 4241,
      "0x000077402446951a": 4242,
      "130": 4243,
      "e80": 4244,
      "50d0": 4245,
      "fb70": 4246,
      "138": 4247,
      "5430": 4248,
      "5f7": 4249,
      "62b0": 4250,
      "0x00007bfcbbc71": 4251,
      "0x00007ad029731": 4252,
      "560": 4253,
      "40d0": 4254,
      "0x00007dc7747a": 4255,
      "0x00007acf79f5c": 4256,
      "0x00007762b88d578d": 4257,
      "0x00007e694fd6578d": 4258,
      "0x00007e854934578d": 4259,
      "0x00007bc75cee4": 4260,
      "0x00007847380c578d": 4261,
      "0x00007837de7f578d": 4262,
      "21c": 4263,
      "478d": 4264,
      "0x000072c5fad8878d": 4265,
      "0x00007acd6e47078d": 4266,
      "0x00007da9a82b078d": 4267,
      "0x000073d90e33d78d": 4268,
      "0x0000741af12be78d": 4269,
      "0x00007638c219878d": 4270,
      "0x00007bc75cee678d": 4271,
      "0x00007dd733da678d": 4272,
      "0x00007455c4e6b78d": 4273,
      "0x00007e7d823ce78d": 4274,
      "0x000074952ab4e78d": 4275,
      "0x00007bf25e46d78d": 4276,
      "0x0000712aa4a6d78d": 4277,
      "0x00007b64be6bf78d": 4278,
      "0x00007dc77477178d": 4279,
      "0x00007bfcbbc7778d": 4280,
      "0x00007ad02973778d": 4281,
      "0x00007acf79f5478d": 4282,
      "0x0000719086e3c78d": 4283,
      "0x00007287ef3bc78d": 4284,
      "0x00007557cc17478d": 4285,
      "0x000077402446378d": 4286,
      "219": 4287,
      "9e8": 4288,
      "e0d0": 4289,
      "0x00007bf25d": 4290,
      "0x00007dd733d9e": 4291,
      "0x00007557cc187": 4292,
      "0x00007acd6d": 4293,
      "0x00007acf79f67": 4294,
      "270": 4295,
      "22b0": 4296,
      "568": 4297,
      "9508": 4298,
      "b60": 4299,
      "16b0": 4300,
      "e0e": 4301,
      "0x000072c5fad9f": 4302,
      "0x00007b64be6de": 4303,
      "0x00007dc7747721": 4304,
      "0x00007455c4e71d": 4305,
      "0x00007762b88d5518": 4306,
      "0x00007762b88d6400": 4307,
      "0x00007762b88d53f0": 4308,
      "0x00007e694fd65518": 4309,
      "0x00007e694fd66400": 4310,
      "0x00007e694fd653f0": 4311,
      "0x00007e8549345518": 4312,
      "0x00007e8549346400": 4313,
      "0x00007e85493453f0": 4314,
      "0x000072c5fad89358": 4315,
      "0x00007847380c5518": 4316,
      "0x00007847380c6400": 4317,
      "0x00007847380c53f0": 4318,
      "0x00007837de7f5518": 4319,
      "0x00007837de7f6400": 4320,
      "0x00007837de7f53f0": 4321,
      "0x00007e7d823cf400": 4322,
      "0x00007e7d823cf1d0": 4323,
      "0x00007e7d823cf1df": 4324,
      "0x00007e7d823cf358": 4325,
      "0x000074952ab4f400": 4326,
      "0x000074952ab4f1d0": 4327,
      "0x000074952ab4f1df": 4328,
      "0x000074952ab4f358": 4329,
      "0x00007740244641": 4330,
      "0x00007638c2199358": 4331,
      "0x000072c5fad88518": 4332,
      "0x000072c5fad883f0": 4333,
      "0x00007acd6e470518": 4334,
      "0x00007acd6e4703f0": 4335,
      "0x00007da9a82b0518": 4336,
      "0x00007da9a82b03f0": 4337,
      "0x000073d90e33d518": 4338,
      "0x000073d90e33d3f0": 4339,
      "0x0000741af12be518": 4340,
      "0x0000741af12be3f0": 4341,
      "d690": 4342,
      "0x0000741af12bf400": 4343,
      "0x0000741af12bf1d0": 4344,
      "0x0000741af12bf1df": 4345,
      "0x0000741af12bf358": 4346,
      "0x00007638c2198518": 4347,
      "0x00007638c21983f0": 4348,
      "0x00007bc75cee6518": 4349,
      "0x00007bc75cee63f0": 4350,
      "0x00007dd733da6518": 4351,
      "0x00007dd733da63f0": 4352,
      "0x00007455c4e6b518": 4353,
      "0x00007455c4e6b3f0": 4354,
      "0x00007acf79f54518": 4355,
      "0x00007acf79f543f0": 4356,
      "0x00007e7d823ce518": 4357,
      "0x00007e7d823ce3f0": 4358,
      "0x000074952ab4e518": 4359,
      "0x000074952ab4e3f0": 4360,
      "0x00007287ef3bc518": 4361,
      "0x00007287ef3bc3f0": 4362,
      "0x00007bf25e46d518": 4363,
      "0x00007bf25e46d3f0": 4364,
      "0x0000712aa4a6d518": 4365,
      "0x0000712aa4a6d3f0": 4366,
      "0x00007557cc174518": 4367,
      "0x00007557cc1743f0": 4368,
      "0x0000719086e3c518": 4369,
      "0x0000719086e3c3f0": 4370,
      "0x00007b64be6bf518": 4371,
      "0x0000719086e3d1d0": 4372,
      "0x0000719086e3d18a": 4373,
      "0x0000719086e3d1df": 4374,
      "0x0000719086e3d362": 4375,
      "0x0000719086e3d366": 4376,
      "0x0000719086e3d358": 4377,
      "0x0000719086e3d400": 4378,
      "0x0000712aa4a6e1d0": 4379,
      "0x0000712aa4a6e18a": 4380,
      "0x0000712aa4a6e1df": 4381,
      "0x0000712aa4a6e362": 4382,
      "0x0000712aa4a6e366": 4383,
      "0x0000712aa4a6e358": 4384,
      "0x0000712aa4a6e400": 4385,
      "0x00007bf25e46e1d0": 4386,
      "0x00007bf25e46e18a": 4387,
      "0x00007bf25e46e1df": 4388,
      "0x00007bf25e46e362": 4389,
      "0x00007bf25e46e366": 4390,
      "0x00007bf25e46e358": 4391,
      "0x00007bf25e46e400": 4392,
      "0x00007dc774771518": 4393,
      "0x00007dc7747713f0": 4394,
      "0x00007acf79f551d0": 4395,
      "0x00007acf79f5518a": 4396,
      "0x00007acf79f551df": 4397,
      "0x00007acf79f55362": 4398,
      "0x00007acf79f55366": 4399,
      "0x00007acf79f55358": 4400,
      "0x00007acf79f55400": 4401,
      "0x00007b64be6c01d0": 4402,
      "0x00007b64be6c018a": 4403,
      "0x00007b64be6c01df": 4404,
      "0x00007b64be6c0362": 4405,
      "0x00007b64be6c0366": 4406,
      "0x00007b64be6c0358": 4407,
      "0x00007b64be6c0400": 4408,
      "0x00007ad0297381d0": 4409,
      "0x00007ad02973818a": 4410,
      "0x00007ad0297381df": 4411,
      "0x00007ad029738362": 4412,
      "0x00007ad029738366": 4413,
      "0x00007ad029738358": 4414,
      "0x00007ad029738400": 4415,
      "0x00007bfcbbc77518": 4416,
      "0x00007ad029737518": 4417,
      "0x000077402446418a": 4418,
      "0x00007740244641df": 4419,
      "0x0000774024464362": 4420,
      "0x0000774024464366": 4421,
      "0x0000774024464358": 4422,
      "0x0000774024464400": 4423,
      "0x00007287ef3bd1d0": 4424,
      "0x00007287ef3bd18a": 4425,
      "0x00007287ef3bd1df": 4426,
      "0x00007287ef3bd362": 4427,
      "0x00007287ef3bd366": 4428,
      "0x00007287ef3bd358": 4429,
      "0x00007bfcbbc781d0": 4430,
      "0x00007bfcbbc7818a": 4431,
      "0x00007bfcbbc781df": 4432,
      "0x00007bfcbbc78362": 4433,
      "0x00007bfcbbc78366": 4434,
      "0x00007bfcbbc78358": 4435,
      "0x00007455c4e6c1d0": 4436,
      "0x00007455c4e6c18a": 4437,
      "0x00007455c4e6c1df": 4438,
      "0x00007455c4e6c362": 4439,
      "0x00007455c4e6c366": 4440,
      "0x00007455c4e6c358": 4441,
      "0x000073d90e33e1d0": 4442,
      "0x000073d90e33e18a": 4443,
      "0x000073d90e33e1df": 4444,
      "0x000073d90e33e362": 4445,
      "0x000073d90e33e366": 4446,
      "0x000073d90e33e358": 4447,
      "0x0000774024463518": 4448,
      "0x00007557cc1751d0": 4449,
      "0x00007557cc17518a": 4450,
      "0x00007557cc1751df": 4451,
      "0x00007acf79f62": 4452,
      "0x00007dc77477218a": 4453,
      "0x00007dc7747721df": 4454,
      "0x000073d90e36d": 4455,
      "0x00007bf25e49d": 4456,
      "0x00007762b88d61d0": 4457,
      "0x00007762b88d618a": 4458,
      "0x00007762b88d61df": 4459,
      "0x00007762b88d6362": 4460,
      "0x00007762b88d6366": 4461,
      "0x00007762b88d6358": 4462,
      "0x00007e694fd661d0": 4463,
      "0x00007e694fd6618a": 4464,
      "0x00007e694fd661df": 4465,
      "0x00007e694fd66362": 4466,
      "0x00007e694fd66366": 4467,
      "0x00007e694fd66358": 4468,
      "0x00007e85493461d0": 4469,
      "0x00007e854934618a": 4470,
      "0x00007e85493461df": 4471,
      "0x00007e8549346362": 4472,
      "0x00007e8549346366": 4473,
      "0x00007e8549346358": 4474,
      "0x00007847380c61d0": 4475,
      "0x00007847380c618a": 4476,
      "0x00007847380c61df": 4477,
      "0x00007847380c6362": 4478,
      "0x00007847380c6366": 4479,
      "0x00007847380c6358": 4480,
      "0x00007837de7f61d0": 4481,
      "0x00007837de7f618a": 4482,
      "0x00007837de7f61df": 4483,
      "0x00007837de7f6362": 4484,
      "0x00007837de7f6366": 4485,
      "0x00007837de7f6358": 4486,
      "0x000072c5fad891d0": 4487,
      "0x000072c5fad8918a": 4488,
      "0x000072c5fad891df": 4489,
      "0x000072c5fad89362": 4490,
      "0x000072c5fad89366": 4491,
      "0x00007638c21991d0": 4492,
      "0x00007638c219918a": 4493,
      "0x00007638c21991df": 4494,
      "0x00007638c2199362": 4495,
      "0x00007638c2199366": 4496,
      "0x00007acd6e4711d0": 4497,
      "0x00007acd6e47118a": 4498,
      "0x00007acd6e4711df": 4499,
      "0x00007acd6e471362": 4500,
      "0x00007acd6e471366": 4501,
      "0x00007acd6e471358": 4502,
      "0x00007da9a82b11d0": 4503,
      "0x00007da9a82b118a": 4504,
      "0x00007da9a82b11df": 4505,
      "0x00007da9a82b1362": 4506,
      "0x00007da9a82b1366": 4507,
      "0x00007da9a82b1358": 4508,
      "1ba": 4509,
      "0x00007e7d823cf18a": 4510,
      "0x00007e7d823cf362": 4511,
      "0x00007e7d823cf366": 4512,
      "0x000074952ab4f18a": 4513,
      "0x000074952ab4f362": 4514,
      "0x000074952ab4f366": 4515,
      "0x0000741af12bf18a": 4516,
      "0x0000741af12bf362": 4517,
      "0x0000741af12bf366": 4518,
      "0x00007740244633f0": 4519,
      "0x00007bfcbbc773f0": 4520,
      "0x00007ad0297373f0": 4521,
      "0x00007b64be6bf3f0": 4522,
      "0x00007bc75cee71d0": 4523,
      "0x00007bc75cee718a": 4524,
      "0x00007bc75cee71df": 4525,
      "0x00007dd733da71d0": 4526,
      "0x00007dd733da718a": 4527,
      "0x00007dd733da71df": 4528,
      "0x00007dc774772358": 4529,
      "0x00007dc774772366": 4530,
      "0x00007dc774772362": 4531,
      "0x00007bc75cee7358": 4532,
      "0x00007bc75cee7366": 4533,
      "0x00007bc75cee7362": 4534,
      "0x00007dd733da7358": 4535,
      "0x00007dd733da7366": 4536,
      "0x00007dd733da7362": 4537,
      "0x00007557cc175358": 4538,
      "0x00007557cc175366": 4539,
      "0x00007557cc175362": 4540,
      "0x00007acd6e471400": 4541,
      "0x00007da9a82b1400": 4542,
      "0x00007dc774772400": 4543,
      "0x00007bfcbbc78400": 4544,
      "0x00007557cc175400": 4545,
      "0x00007bc75cee7400": 4546,
      "0x000072c5fad89400": 4547,
      "0x00007455c4e6c400": 4548,
      "0x00007dd733da7400": 4549,
      "0x00007638c2199400": 4550,
      "0x000073d90e33e400": 4551,
      "0x00007287ef3bd400": 4552,
      "0x00007dc7747721d0": 4553,
      "0x00007740244641d0": 4554,
      "00d0": 4555,
      "588": 4556,
      "6418": 4557,
      "80d0": 4558,
      "0x00007557cc182": 4559,
      "f418": 4560,
      "0x0000719086e49d": 4561,
      "0x00007287ef3c9d": 4562,
      "d620": 4563,
      "0x0000712aa4a9d": 4564,
      "0x00007e694fd84": 4565,
      "22a3": 4566,
      "92a3": 4567,
      "b3a": 4568,
      "342c": 4569,
      "a418": 4570,
      "2418": 4571,
      "242c": 4572,
      "0x00007455c42": 4573,
      "0x00007bc75c2": 4574,
      "0x00007acf792": 4575,
      "0x00007bfcbbc77240": 4576,
      "0x00007762b88d5240": 4577,
      "0x00007762b88d5390": 4578,
      "0x00007762b88d5fd1": 4579,
      "0x00007e694fd65240": 4580,
      "0x00007e694fd65390": 4581,
      "0x00007e694fd65fd1": 4582,
      "0x00007e8549345240": 4583,
      "0x00007e8549345390": 4584,
      "0x00007e8549345fd1": 4585,
      "142c": 4586,
      "842c": 4587,
      "0x00007847380c5240": 4588,
      "0x00007847380c5390": 4589,
      "0x00007847380c5fd1": 4590,
      "0x00007837de7f5240": 4591,
      "0x00007837de7f5390": 4592,
      "0x00007837de7f5fd1": 4593,
      "0x00007e7d823cefd1": 4594,
      "0x000074952ab4efd1": 4595,
      "f9b": 4596,
      "0x00007ad029737240": 4597,
      "0x00007b64be6bffd": 4598,
      "0x000072c5fad88240": 4599,
      "0x000072c5fad88fd1": 4600,
      "0x000072c5fad88390": 4601,
      "0x00007acd6e470240": 4602,
      "0x00007acd6e470fd1": 4603,
      "0x00007acd6e470390": 4604,
      "0x00007da9a82b0240": 4605,
      "0x00007da9a82b0fd1": 4606,
      "0x00007da9a82b0390": 4607,
      "0x000073d90e33d240": 4608,
      "0x000073d90e33dfd1": 4609,
      "0x000073d90e33d390": 4610,
      "0x0000741af12be240": 4611,
      "0x0000741af12befd1": 4612,
      "0x0000741af12be390": 4613,
      "0x00007638c2198240": 4614,
      "0x00007638c2198fd1": 4615,
      "0x00007638c2198390": 4616,
      "0x00007bc75cee6240": 4617,
      "0x00007bc75cee6fd1": 4618,
      "0x00007bc75cee6390": 4619,
      "0x00007dd733da6240": 4620,
      "0x00007dd733da6fd1": 4621,
      "0x00007dd733da6390": 4622,
      "2df8": 4623,
      "0x00007455c4e6b240": 4624,
      "0x00007455c4e6bfd1": 4625,
      "0x00007455c4e6b390": 4626,
      "0x00007acf79f54240": 4627,
      "0x00007acf79f54fd1": 4628,
      "0x00007acf79f54390": 4629,
      "0x00007e7d823ce240": 4630,
      "0x00007e7d823ce390": 4631,
      "0x000074952ab4e240": 4632,
      "0x000074952ab4e390": 4633,
      "0x00007287ef3bc240": 4634,
      "0x00007287ef3bcfd1": 4635,
      "0x00007287ef3bc390": 4636,
      "0x00007190862": 4637,
      "0x00007bf25e46d240": 4638,
      "0x00007bf25e46dfd1": 4639,
      "0x00007bf25e46d390": 4640,
      "0x0000712aa4a6d240": 4641,
      "0x0000712aa4a6dfd1": 4642,
      "0x0000712aa4a6d390": 4643,
      "0x00007557cc174240": 4644,
      "0x00007557cc174fd1": 4645,
      "0x00007557cc174390": 4646,
      "0x0000719086e3c240": 4647,
      "0x0000719086e3cfd1": 4648,
      "0x0000719086e3c390": 4649,
      "b42c": 4650,
      "0x00007b64be6bf240": 4651,
      "0x00007dc774771240": 4652,
      "0x00007dc774771fd1": 4653,
      "0x00007dc774771390": 4654,
      "0x00007bfcbbc77fd1": 4655,
      "0x00007ad029737fd1": 4656,
      "0x0000774024463240": 4657,
      "0x0000774024463fd1": 4658,
      "a600": 4659,
      "cfe0": 4660,
      "0x0000774024463390": 4661,
      "0x00007bfcbbc77390": 4662,
      "0x00007ad029737390": 4663,
      "0x00007b64be6bf390": 4664,
      "0x00007b64be6bffd1": 4665,
      "22d": 4666,
      "2624": 4667,
      "0x000074952ab56": 4668,
      "0x00007455c4e68": 4669,
      "0x00007acd6e471624": 4670,
      "0x00007da9a82b1624": 4671,
      "0x00007dc77477180": 4672,
      "0x00007dc7747719b0": 4673,
      "0x00007dc7747716b0": 4674,
      "0x00007dc774772624": 4675,
      "0x00007740244636b0": 4676,
      "0x00007837de7e": 4677,
      "0x00007bfcbbc779b0": 4678,
      "0x00007bfcbbc776b0": 4679,
      "0x00007bfcbbc77802": 4680,
      "0x00007bfcbbc772ff": 4681,
      "c040": 4682,
      "0x00007557cc1756": 4683,
      "0x00007557cc1746b0": 4684,
      "0x00007762b88d56b0": 4685,
      "0x00007762b88d6450": 4686,
      "0x00007762b88d5310": 4687,
      "0x00007762b88d59b0": 4688,
      "0x00007762b88d6440": 4689,
      "0x00007762b88d53b0": 4690,
      "0x00007762b88d5818": 4691,
      "0x00007762b88d5853": 4692,
      "0x00007762b88d52ff": 4693,
      "0x00007762b88d52af": 4694,
      "0x00007762b88d5802": 4695,
      "0x00007762b88d6624": 4696,
      "0x00007e694fd656b0": 4697,
      "0x00007e694fd66450": 4698,
      "0x00007e694fd65310": 4699,
      "0x00007e694fd659b0": 4700,
      "0x00007e694fd66440": 4701,
      "0x00007e694fd653b0": 4702,
      "0x00007e694fd65818": 4703,
      "0x00007e694fd65853": 4704,
      "0x00007e694fd652ff": 4705,
      "0x00007e694fd652af": 4706,
      "0x00007e694fd65802": 4707,
      "0x00007e694fd66624": 4708,
      "0x00007e85493456b0": 4709,
      "0x00007e8549346450": 4710,
      "0x00007e8549345310": 4711,
      "0x00007e85493459b0": 4712,
      "0x00007e8549346440": 4713,
      "0x00007e85493453b0": 4714,
      "0x00007e8549345818": 4715,
      "0x00007e8549345853": 4716,
      "0x00007e85493452ff": 4717,
      "0x00007e85493452af": 4718,
      "0x00007e8549345802": 4719,
      "0x00007e8549346624": 4720,
      "0x00007bc75cee7624": 4721,
      "0x00007638c2195": 4722,
      "0x00007847380c56b0": 4723,
      "0x00007847380c6450": 4724,
      "0x00007847380c5310": 4725,
      "0x00007847380c59b0": 4726,
      "0x00007847380c6440": 4727,
      "0x00007847380c53b0": 4728,
      "0x00007847380c5818": 4729,
      "0x00007847380c5853": 4730,
      "0x00007847380c52ff": 4731,
      "0x00007847380c52af": 4732,
      "0x00007847380c5802": 4733,
      "0x00007847380c6624": 4734,
      "0x00007455c4e6b6b0": 4735,
      "0x00007837de7f56b0": 4736,
      "0x00007837de7f6450": 4737,
      "0x00007837de7f5310": 4738,
      "0x00007837de7f59b0": 4739,
      "0x00007837de7f6440": 4740,
      "0x00007837de7f53b0": 4741,
      "0x00007837de7f5818": 4742,
      "0x00007837de7f5853": 4743,
      "0x00007837de7f52ff": 4744,
      "0x00007837de7f52af": 4745,
      "0x00007837de7f5802": 4746,
      "0x00007837de7f6624": 4747,
      "0x00007e7d823cf450": 4748,
      "0x00007e7d823cf440": 4749,
      "0x00007dd733da7624": 4750,
      "0x000074952ab4f450": 4751,
      "0x000074952ab4f440": 4752,
      "0x00007ad0297379b0": 4753,
      "0x00007ad0297376b0": 4754,
      "0x00007ad029737802": 4755,
      "0x00007ad0297372ff": 4756,
      "0x00007638c219880": 4757,
      "0x00007bf25e46d6b0": 4758,
      "0x0000712aa4a6d6b0": 4759,
      "0x000072c5fad889b0": 4760,
      "0x000072c5fad882af": 4761,
      "0x000072c5fad882ff": 4762,
      "0x000072c5fad88310": 4763,
      "0x000072c5fad883b0": 4764,
      "0x000072c5fad886b0": 4765,
      "0x000072c5fad88802": 4766,
      "0x000072c5fad88853": 4767,
      "0x000072c5fad88818": 4768,
      "0x00007acd6e4709b0": 4769,
      "0x00007acd6e4702af": 4770,
      "0x00007acd6e4702ff": 4771,
      "0x00007acd6e470310": 4772,
      "0x00007acd6e4703b0": 4773,
      "0x00007acd6e4706b0": 4774,
      "0x00007acd6e470802": 4775,
      "0x00007acd6e470853": 4776,
      "0x00007acd6e470818": 4777,
      "0x00007da9a82b09b0": 4778,
      "0x00007da9a82b02af": 4779,
      "0x00007da9a82b02ff": 4780,
      "0x00007da9a82b0310": 4781,
      "0x00007da9a82b03b0": 4782,
      "0x00007da9a82b06b0": 4783,
      "0x00007da9a82b0802": 4784,
      "0x00007da9a82b0853": 4785,
      "0x00007da9a82b0818": 4786,
      "0x000073d90e33d9b0": 4787,
      "0x000073d90e33d2af": 4788,
      "0x000073d90e33d2ff": 4789,
      "0x000073d90e33d310": 4790,
      "0x000073d90e33d3b0": 4791,
      "0x000073d90e33d6b0": 4792,
      "0x000073d90e33d802": 4793,
      "0x000073d90e33d853": 4794,
      "0x000073d90e33d818": 4795,
      "0x0000741af12be9b0": 4796,
      "0x0000741af12be2af": 4797,
      "0x0000741af12be2ff": 4798,
      "0x0000741af12be310": 4799,
      "0x0000741af12be3b0": 4800,
      "0x0000741af12be6b0": 4801,
      "0x0000741af12be802": 4802,
      "0x0000741af12be853": 4803,
      "0x0000741af12be818": 4804,
      "0x0000741af12bf450": 4805,
      "0x0000741af12bf440": 4806,
      "0x00007638c21989b0": 4807,
      "0x00007638c21982af": 4808,
      "0x00007638c21982ff": 4809,
      "0x00007638c2198310": 4810,
      "0x00007638c21983b0": 4811,
      "0x00007638c21986b0": 4812,
      "0x00007bc75cee69b0": 4813,
      "0x00007bc75cee62af": 4814,
      "0x00007bc75cee62ff": 4815,
      "0x00007bc75cee6310": 4816,
      "0x00007bc75cee63b0": 4817,
      "0x00007bc75cee66b0": 4818,
      "0x00007bc75cee6802": 4819,
      "0x00007dd733da69b0": 4820,
      "0x00007dd733da62af": 4821,
      "0x00007dd733da62ff": 4822,
      "0x00007dd733da6310": 4823,
      "0x00007dd733da63b0": 4824,
      "0x00007dd733da66b0": 4825,
      "0x00007dd733da6802": 4826,
      "0x00007455c4e6b9b0": 4827,
      "0x00007455c4e6b2af": 4828,
      "0x00007455c4e6b2ff": 4829,
      "0x00007455c4e6b310": 4830,
      "0x00007455c4e6b3b0": 4831,
      "0x00007455c4e6b802": 4832,
      "0x00007acf79f549b0": 4833,
      "0x00007acf79f542af": 4834,
      "0x00007acf79f542ff": 4835,
      "0x00007acf79f54310": 4836,
      "0x00007acf79f543b0": 4837,
      "0x00007acf79f546b0": 4838,
      "0x00007acf79f54802": 4839,
      "0x00007acf79f54853": 4840,
      "0x00007acf79f54818": 4841,
      "0x00007e7d823ce9b0": 4842,
      "0x00007e7d823ce2af": 4843,
      "0x00007e7d823ce2ff": 4844,
      "0x00007e7d823ce310": 4845,
      "0x00007e7d823ce3b0": 4846,
      "0x00007e7d823ce6b0": 4847,
      "0x000074952ab4e9b0": 4848,
      "0x000074952ab4e2af": 4849,
      "0x000074952ab4e2ff": 4850,
      "0x000074952ab4e310": 4851,
      "0x000074952ab4e3b0": 4852,
      "0x000074952ab4e6b0": 4853,
      "0x00007287ef3bc9b0": 4854,
      "0x00007287ef3bc2af": 4855,
      "0x00007287ef3bc2ff": 4856,
      "0x00007287ef3bc310": 4857,
      "0x00007287ef3bc3b0": 4858,
      "0x00007287ef3bc6b0": 4859,
      "0x00007287ef3bc802": 4860,
      "0x00007287ef3bc853": 4861,
      "0x00007287ef3bc818": 4862,
      "0x00007bf25e46d9b0": 4863,
      "0x00007bf25e46d2af": 4864,
      "0x00007bf25e46d2ff": 4865,
      "0x00007bf25e46d310": 4866,
      "0x00007bf25e46d3b0": 4867,
      "0x0000712aa4a6d9b0": 4868,
      "0x0000712aa4a6d2af": 4869,
      "0x0000712aa4a6d2ff": 4870,
      "0x0000712aa4a6d310": 4871,
      "0x0000712aa4a6d3b0": 4872,
      "0x00007557cc1749b0": 4873,
      "0x00007557cc1742af": 4874,
      "0x00007557cc1742ff": 4875,
      "0x00007557cc174310": 4876,
      "0x00007557cc1743b0": 4877,
      "0x00007557cc174802": 4878,
      "0x0000719086e3c9b0": 4879,
      "0x0000719086e3c2af": 4880,
      "0x0000719086e3c2ff": 4881,
      "0x0000719086e3c310": 4882,
      "0x0000719086e3c3b0": 4883,
      "0x0000719086e3c6b0": 4884,
      "0x0000719086e3c802": 4885,
      "0x00007b64be6bf9b0": 4886,
      "0x00007b64be6bf2af": 4887,
      "0x00007b64be6bf2ff": 4888,
      "0x00007b64be6bf6b0": 4889,
      "0x0000719086e3ddec": 4890,
      "0x0000719086e3d23e": 4891,
      "0x0000719086e3d624": 4892,
      "0x0000719086e3d450": 4893,
      "0x0000719086e3d440": 4894,
      "0x0000712aa4a6edec": 4895,
      "0x0000712aa4a6e23e": 4896,
      "0x0000712aa4a6e624": 4897,
      "0x0000712aa4a6e450": 4898,
      "0x0000712aa4a6e440": 4899,
      "0x00007bf25e46edec": 4900,
      "0x00007bf25e46e23e": 4901,
      "0x00007bf25e46e624": 4902,
      "0x00007bf25e46e450": 4903,
      "0x00007bf25e46e440": 4904,
      "0x00007dc7747712af": 4905,
      "0x00007dc7747712ff": 4906,
      "0x00007dc774771310": 4907,
      "0x00007dc7747713b0": 4908,
      "0x00007acf79f55dec": 4909,
      "0x00007acf79f5523e": 4910,
      "0x00007acf79f55624": 4911,
      "0x00007acf79f55450": 4912,
      "0x00007acf79f55440": 4913,
      "0x00007b64be6c0dec": 4914,
      "0x00007b64be6c023e": 4915,
      "0x00007b64be6c0624": 4916,
      "0x00007b64be6c0450": 4917,
      "0x00007b64be6c0440": 4918,
      "0x00007ad029738dec": 4919,
      "0x00007ad02973823e": 4920,
      "0x00007ad029738624": 4921,
      "0x00007ad029738450": 4922,
      "0x00007ad029738440": 4923,
      "0x00007bfcbbc772af": 4924,
      "0x00007ad0297372af": 4925,
      "0x0000774024464dec": 4926,
      "0x000077402446423e": 4927,
      "0x0000774024464624": 4928,
      "0x0000774024464450": 4929,
      "0x0000774024464440": 4930,
      "0x00007287ef3bddec": 4931,
      "0x00007287ef3bd23e": 4932,
      "0x00007287ef3bd624": 4933,
      "0x00007bfcbbc78dec": 4934,
      "0x00007bfcbbc7823e": 4935,
      "0x00007bfcbbc78624": 4936,
      "0x00007455c4e6cdec": 4937,
      "0x00007455c4e6c23e": 4938,
      "0x00007455c4e6c624": 4939,
      "0x000073d90e33edec": 4940,
      "0x000073d90e33e23e": 4941,
      "0x000073d90e33e624": 4942,
      "0x00007740244639b0": 4943,
      "0x00007740244632af": 4944,
      "0x00007740244632ff": 4945,
      "0x00007557cc175dec": 4946,
      "0x00007557cc17523e": 4947,
      "0x00007dc774772dec": 4948,
      "0x00007dc77477223e": 4949,
      "0x000072c5fadb7": 4950,
      "0x00007762b88d6dec": 4951,
      "0x00007762b88d623e": 4952,
      "0x00007e694fd66dec": 4953,
      "0x00007e694fd6623e": 4954,
      "0x00007e8549346dec": 4955,
      "0x00007e854934623e": 4956,
      "0x00007847380c6dec": 4957,
      "0x00007847380c623e": 4958,
      "0x00007837de7f6dec": 4959,
      "0x00007837de7f623e": 4960,
      "0x000072c5fad89dec": 4961,
      "0x000072c5fad8923e": 4962,
      "0x000072c5fad89624": 4963,
      "0x00007638c2199dec": 4964,
      "0x00007638c219923e": 4965,
      "0x00007638c2199624": 4966,
      "0x00007acd6e471dec": 4967,
      "0x00007acd6e47123e": 4968,
      "0x00007da9a82b1dec": 4969,
      "0x00007da9a82b123e": 4970,
      "0x00007e7d823cfdec": 4971,
      "0x00007e7d823cf23e": 4972,
      "0x00007e7d823cf624": 4973,
      "0x000074952ab4fdec": 4974,
      "0x000074952ab4f23e": 4975,
      "0x000074952ab4f624": 4976,
      "0x0000741af12bfdec": 4977,
      "0x0000741af12bf23e": 4978,
      "0x0000741af12bf624": 4979,
      "0x0000774024463310": 4980,
      "0x00007740244633b0": 4981,
      "0x00007bfcbbc77310": 4982,
      "0x00007bfcbbc773b0": 4983,
      "0x00007ad029737310": 4984,
      "0x00007ad0297373b0": 4985,
      "0x00007b64be6bf310": 4986,
      "0x00007b64be6bf3b0": 4987,
      "0x00007bc75cee7dec": 4988,
      "0x00007bc75cee723e": 4989,
      "0x00007dd733da7dec": 4990,
      "0x00007dd733da723e": 4991,
      "0x00007e7d823ce818": 4992,
      "0x00007e7d823ce853": 4993,
      "0x00007e7d823ce802": 4994,
      "0x000074952ab4e818": 4995,
      "0x000074952ab4e853": 4996,
      "0x000074952ab4e802": 4997,
      "0x0000774024463818": 4998,
      "0x0000774024463853": 4999
    },
    "merges": [
      [
        "0",
        "0"
      ],
      [
        "00",
        "00"
      ],
      [
        "f",
        "f"
      ],
      [
        "-",
        ">"
      ],
      [
        "0",
        "x"
      ],
      [
        "a",
        "x"
      ],
      [
        "t",
        "e"
      ],
      [
        "r",
        "ax"
      ],
      [
        "b",
        "y"
      ],
      [
        "by",
        "te"
      ],
      [
        "(",
        "%"
      ],
      [
        ")",
        "["
      ],
      [
        "0x",
        "0000"
      ],
      [
        "m",
        "o"
      ],
      [
        "mo",
        "v"
      ],
      [
        "ff",
        "ff"
      ],
      [
        "8",
        "byte"
      ],
      [
        "r",
        "s"
      ],
      [
        "d",
        "x"
      ],
      [
        "r",
        "b"
      ],
      [
        "r",
        "1"
      ],
      [
        "rs",
        "p"
      ],
      [
        "0x0000",
        "7"
      ],
      [
        "r",
        "dx"
      ],
      [
        "a",
        "d"
      ],
      [
        "0x",
        "ffff"
      ],
      [
        "0xffff",
        "ff"
      ],
      [
        "ad",
        "d"
      ],
      [
        "e",
        "ax"
      ],
      [
        "rb",
        "p"
      ],
      [
        "4",
        "byte"
      ],
      [
        "0000",
        "0000"
      ],
      [
        "0x0000",
        "00000000"
      ],
      [
        "m",
        "p"
      ],
      [
        "0x000000000000",
        "00"
      ],
      [
        "c",
        "mp"
      ],
      [
        "m",
        "m"
      ],
      [
        "x",
        "mm"
      ],
      [
        "d",
        "i"
      ],
      [
        "c",
        "x"
      ],
      [
        "rb",
        "x"
      ],
      [
        "r1",
        "2"
      ],
      [
        "j",
        "z"
      ],
      [
        "r",
        "8"
      ],
      [
        "j",
        "n"
      ],
      [
        "r",
        "cx"
      ],
      [
        "0xffffff",
        "c"
      ],
      [
        "s",
        "h"
      ],
      [
        "0x00000000000000",
        "0"
      ],
      [
        "r1",
        "0"
      ],
      [
        "s",
        "t"
      ],
      [
        "xmm",
        "0"
      ],
      [
        "0x0000",
        "00"
      ],
      [
        ",",
        "%"
      ],
      [
        "te",
        "st"
      ],
      [
        "jn",
        "z"
      ],
      [
        "e",
        "a"
      ],
      [
        "d",
        "e"
      ],
      [
        "1",
        "byte"
      ],
      [
        "l",
        "ea"
      ],
      [
        "e",
        "dx"
      ],
      [
        "c",
        "w"
      ],
      [
        "cw",
        "de"
      ],
      [
        "0x",
        "0"
      ],
      [
        "f",
        "8"
      ],
      [
        "0x",
        "00"
      ],
      [
        "r",
        "di"
      ],
      [
        "0xffffff",
        "f8"
      ],
      [
        "0x000000",
        "0"
      ],
      [
        "mov",
        "z"
      ],
      [
        "movz",
        "x"
      ],
      [
        "r10",
        "d"
      ],
      [
        "d",
        "l"
      ],
      [
        "rs",
        "i"
      ],
      [
        "s",
        "d"
      ],
      [
        "0xffffffc",
        "c"
      ],
      [
        "sh",
        "l"
      ],
      [
        "5",
        "8"
      ],
      [
        "r",
        "9"
      ],
      [
        "3",
        "d"
      ],
      [
        "4",
        "0"
      ],
      [
        "0x00007",
        "b"
      ],
      [
        "0x0000000",
        "1"
      ],
      [
        "o",
        "p"
      ],
      [
        "a",
        "58"
      ],
      [
        "e",
        "di"
      ],
      [
        "0x0",
        "8"
      ],
      [
        "b",
        "e"
      ],
      [
        "1",
        "8"
      ],
      [
        "e",
        "8"
      ],
      [
        "p",
        "u"
      ],
      [
        "e",
        "cx"
      ],
      [
        "(",
        ",%"
      ],
      [
        "4",
        "7"
      ],
      [
        "r1",
        "4"
      ],
      [
        "0x000000000000000",
        "3"
      ],
      [
        "r1",
        "3"
      ],
      [
        "di",
        "l"
      ],
      [
        "mov",
        "sd"
      ],
      [
        "r",
        "e"
      ],
      [
        "pu",
        "sh"
      ],
      [
        "r1",
        "5"
      ],
      [
        "1",
        "0"
      ],
      [
        "0x00007",
        "d"
      ],
      [
        "0x00007",
        "4"
      ],
      [
        "xmm",
        "1"
      ],
      [
        "a",
        "n"
      ],
      [
        "an",
        "d"
      ],
      [
        "0x0000",
        "0"
      ],
      [
        "c",
        "7"
      ],
      [
        "2",
        "a"
      ],
      [
        "3",
        "8"
      ],
      [
        "7",
        "0"
      ],
      [
        "d",
        "8"
      ],
      [
        "p",
        "op"
      ],
      [
        "5",
        "5"
      ],
      [
        "9",
        "0"
      ],
      [
        "0x000000000000000",
        "1"
      ],
      [
        "s",
        "i"
      ],
      [
        "0xffffffc",
        "4"
      ],
      [
        "2",
        "3"
      ],
      [
        "a",
        "c"
      ],
      [
        "o",
        "r"
      ],
      [
        "2",
        "8"
      ],
      [
        "xmm",
        "2"
      ],
      [
        "re",
        "l"
      ],
      [
        "1",
        "a"
      ],
      [
        "9",
        "e"
      ],
      [
        "6",
        "e"
      ],
      [
        "2",
        "0"
      ],
      [
        "0x00007",
        "e"
      ],
      [
        "0x00007",
        "7"
      ],
      [
        "0x00007",
        "8"
      ],
      [
        "0x00007b",
        "f"
      ],
      [
        "0x00007",
        "1"
      ],
      [
        "0x00007",
        "ac"
      ],
      [
        "3",
        "4"
      ],
      [
        "e",
        "si"
      ],
      [
        "x",
        "or"
      ],
      [
        "2",
        "b"
      ],
      [
        "jn",
        "be"
      ],
      [
        "0x",
        "10"
      ],
      [
        "0xffffffc",
        "8"
      ],
      [
        "u",
        "b"
      ],
      [
        "s",
        "ub"
      ],
      [
        "2",
        "c"
      ],
      [
        "a",
        "l"
      ],
      [
        "9e",
        "5"
      ],
      [
        "0xffffff",
        "e8"
      ],
      [
        "0x00000000000000",
        "70"
      ],
      [
        "0x000000",
        "23"
      ],
      [
        "7",
        "3"
      ],
      [
        "d",
        "0"
      ],
      [
        "8",
        "8"
      ],
      [
        "c",
        "b"
      ],
      [
        "5",
        "0"
      ],
      [
        "1",
        "6"
      ],
      [
        "r8",
        "d"
      ],
      [
        "5",
        "4"
      ],
      [
        "sh",
        "r"
      ],
      [
        "2",
        "5"
      ],
      [
        "e",
        "0"
      ],
      [
        "9",
        "4"
      ],
      [
        "6",
        "4"
      ],
      [
        "0x000000000000000",
        "8"
      ],
      [
        "n",
        "op"
      ],
      [
        "f",
        "b"
      ],
      [
        "a",
        "9"
      ],
      [
        "a",
        "8"
      ],
      [
        "c",
        "l"
      ],
      [
        "e",
        "f"
      ],
      [
        "7",
        "9"
      ],
      [
        "3",
        "0"
      ],
      [
        "0x00000000000000",
        "18"
      ],
      [
        "r1",
        "1"
      ],
      [
        "e",
        "b"
      ],
      [
        "a",
        "4"
      ],
      [
        "j",
        "mp"
      ],
      [
        "3",
        "7"
      ],
      [
        "2",
        "6"
      ],
      [
        "d",
        "4"
      ],
      [
        "c",
        "4"
      ],
      [
        "r9",
        "d"
      ],
      [
        "9",
        "5"
      ],
      [
        "f",
        "1"
      ],
      [
        "f",
        "d"
      ],
      [
        "d",
        "a"
      ],
      [
        "5",
        "c"
      ],
      [
        "0x00000",
        "3"
      ],
      [
        "j",
        "l"
      ],
      [
        "0x000000000000000",
        "5"
      ],
      [
        "0xffffff",
        "d4"
      ],
      [
        "f",
        "e"
      ],
      [
        "8",
        "0"
      ],
      [
        "7",
        "c"
      ],
      [
        "5",
        "f"
      ],
      [
        "2",
        "9"
      ],
      [
        "2",
        "4"
      ],
      [
        "ad",
        "0"
      ],
      [
        "6",
        "38"
      ],
      [
        "b",
        "c"
      ],
      [
        "0x00000000000000",
        "26"
      ],
      [
        "6",
        "94"
      ],
      [
        "6",
        "2b"
      ],
      [
        "3d",
        "90"
      ],
      [
        "90",
        "8"
      ],
      [
        "28",
        "7"
      ],
      [
        "e8",
        "54"
      ],
      [
        "2c",
        "5f"
      ],
      [
        "0x00007",
        "ad0"
      ],
      [
        "0x00007",
        "3d90"
      ],
      [
        "0x00007",
        "e854"
      ],
      [
        "0x00007b",
        "c7"
      ],
      [
        "0x00007d",
        "d"
      ],
      [
        "0x00007d",
        "c7"
      ],
      [
        "0x000074",
        "95"
      ],
      [
        "0x00007e",
        "694"
      ],
      [
        "0x000077",
        "40"
      ],
      [
        "0x000078",
        "47"
      ],
      [
        "0x00007bf",
        "25"
      ],
      [
        "0x00007ac",
        "f"
      ],
      [
        "0x00007e",
        "7"
      ],
      [
        "0x000071",
        "2a"
      ],
      [
        "0x000071",
        "908"
      ],
      [
        "0x00007",
        "55"
      ],
      [
        "0x00007",
        "638"
      ],
      [
        "0x00007",
        "2c5f"
      ],
      [
        "0x00007b",
        "64"
      ],
      [
        "0x00007d",
        "a9"
      ],
      [
        "0x000074",
        "55"
      ],
      [
        "0x000074",
        "1a"
      ],
      [
        "0x000077",
        "62b"
      ],
      [
        "0x000078",
        "37"
      ],
      [
        "0x00007bf",
        "cb"
      ],
      [
        "0x00007",
        "287"
      ],
      [
        "0x00007ac",
        "d"
      ],
      [
        "0x000000000000",
        "0000"
      ],
      [
        "4",
        "8"
      ],
      [
        "6",
        "0"
      ],
      [
        "0x00007dd",
        "73"
      ],
      [
        "0x00007e7",
        "d8"
      ],
      [
        "0x00007638",
        "c"
      ],
      [
        "0x00007455",
        "c4"
      ],
      [
        "0x00007bc7",
        "5c"
      ],
      [
        "0x00007acf",
        "79"
      ],
      [
        "1",
        "40"
      ],
      [
        "0x0000",
        "0000"
      ],
      [
        "0xffffff",
        "d8"
      ],
      [
        "0xffffff",
        "e0"
      ],
      [
        "0x",
        "20"
      ],
      [
        "38",
        "0"
      ],
      [
        "7",
        "47"
      ],
      [
        "40",
        "f"
      ],
      [
        "0x00007495",
        "2a"
      ],
      [
        "c",
        "al"
      ],
      [
        "cal",
        "l"
      ],
      [
        "j",
        "be"
      ],
      [
        "7c",
        "c"
      ],
      [
        "3",
        "18"
      ],
      [
        "3",
        "34"
      ],
      [
        "0x00007ad0",
        "29"
      ],
      [
        "0x000073d90",
        "e"
      ],
      [
        "0x00007e854",
        "9"
      ],
      [
        "0x00007dc7",
        "747"
      ],
      [
        "0x00007740",
        "24"
      ],
      [
        "0x00007847",
        "380"
      ],
      [
        "0x00007bf25",
        "e"
      ],
      [
        "0x00007dd73",
        "3d"
      ],
      [
        "0x000074952a",
        "b"
      ],
      [
        "0x0000712a",
        "a4"
      ],
      [
        "0x000071908",
        "6e"
      ],
      [
        "0x0000755",
        "7cc"
      ],
      [
        "0x000072c5f",
        "ad"
      ],
      [
        "0x00007b64",
        "be"
      ],
      [
        "0x00007da9",
        "a8"
      ],
      [
        "0x0000741a",
        "f1"
      ],
      [
        "0x00007837",
        "de"
      ],
      [
        "0x00007638c",
        "2"
      ],
      [
        "0x00007287",
        "ef"
      ],
      [
        "0x00007acd",
        "6e"
      ],
      [
        "eb",
        "x"
      ],
      [
        "f",
        "0"
      ],
      [
        "re",
        "t"
      ],
      [
        "m",
        "u"
      ],
      [
        "mu",
        "l"
      ],
      [
        "b",
        "0"
      ],
      [
        "6",
        "8"
      ],
      [
        "0x00007e694",
        "fd"
      ],
      [
        "0x00007acf79",
        "f"
      ],
      [
        "0x00007762b",
        "88"
      ],
      [
        "0x00007b64be",
        "6"
      ],
      [
        "add",
        "sd"
      ],
      [
        "mul",
        "sd"
      ],
      [
        "a",
        "16"
      ],
      [
        "t",
        "a16"
      ],
      [
        "da",
        "ta16"
      ],
      [
        "0x00007455c4",
        "e"
      ],
      [
        "0x00007287ef",
        "3"
      ],
      [
        "9",
        "8"
      ],
      [
        "4",
        "6"
      ],
      [
        "d",
        "fe"
      ],
      [
        "0x0000712aa4",
        "a"
      ],
      [
        "0x",
        "18"
      ],
      [
        "r15",
        "d"
      ],
      [
        "1",
        "a58"
      ],
      [
        "fb",
        "40f"
      ],
      [
        "0x0",
        "4"
      ],
      [
        "0x00007acd6e",
        "47"
      ],
      [
        "0x00007da9a8",
        "2b"
      ],
      [
        "0x00000",
        "2"
      ],
      [
        "0xffffffc",
        "0"
      ],
      [
        "16",
        "byte"
      ],
      [
        "0x00007dc7747",
        "7"
      ],
      [
        "r14",
        "d"
      ],
      [
        "0x00007ad029",
        "7"
      ],
      [
        "0x",
        "3d"
      ],
      [
        "0x",
        "28"
      ],
      [
        "0x000003",
        "1"
      ],
      [
        "5",
        "a"
      ],
      [
        "7",
        "8"
      ],
      [
        "mov",
        "d"
      ],
      [
        "0x0000774024",
        "46"
      ],
      [
        "0xffff",
        "ffff"
      ],
      [
        "50",
        "b"
      ],
      [
        "2",
        "byte"
      ],
      [
        "p",
        "s"
      ],
      [
        "c",
        "8"
      ],
      [
        "p",
        "xor"
      ],
      [
        "0x0",
        "2"
      ],
      [
        "0x",
        "68"
      ],
      [
        "0x00007e7d8",
        "2"
      ],
      [
        "0x0000741af1",
        "2c"
      ],
      [
        "0x00007e7d82",
        "3d"
      ],
      [
        "0x0",
        "1"
      ],
      [
        "e",
        "e"
      ],
      [
        "0x00007bf25e",
        "47"
      ],
      [
        "0x000073d90e",
        "34"
      ],
      [
        "1",
        "9"
      ],
      [
        "1",
        "7"
      ],
      [
        "0x00000000000000",
        "10"
      ],
      [
        ":",
        "(%"
      ],
      [
        "r12",
        "d"
      ],
      [
        "0x00007455c4e",
        "7"
      ],
      [
        "f",
        "c"
      ],
      [
        "6",
        "a"
      ],
      [
        "0x00007bfcb",
        "bc"
      ],
      [
        "0x",
        "d0"
      ],
      [
        "a",
        "00"
      ],
      [
        "0x00007e8549",
        "3"
      ],
      [
        "0x",
        "30"
      ],
      [
        "0x0000031",
        "e"
      ],
      [
        "0x0000000",
        "3"
      ],
      [
        "0x",
        "50"
      ],
      [
        "0xffffff",
        "bc"
      ],
      [
        "0x00007bfcb",
        "b"
      ],
      [
        "r1",
        "3d"
      ],
      [
        "3",
        "3"
      ],
      [
        "a",
        "0"
      ],
      [
        "0x00007837de",
        "7"
      ],
      [
        "0x00007bfcbb",
        "c7"
      ],
      [
        "0xffffffff",
        "ffff"
      ],
      [
        "0x",
        "40"
      ],
      [
        "0x0000000",
        "2"
      ],
      [
        "c",
        "0"
      ],
      [
        "0x00007557cc",
        "17"
      ],
      [
        "0x00007762b88",
        "d"
      ],
      [
        "0x00007e694fd",
        "6"
      ],
      [
        "0x00007e8549",
        "34"
      ],
      [
        "0x00007bc75c",
        "ee"
      ],
      [
        "0x",
        "e8"
      ],
      [
        "9",
        "d0"
      ],
      [
        "p",
        "d"
      ],
      [
        "0x00000000000000",
        "98"
      ],
      [
        "0x00007638c2",
        "1a"
      ],
      [
        "0x00007bc75c",
        "ef"
      ],
      [
        "0x00007bfcbbc",
        "8"
      ],
      [
        "0x00007ad0297",
        "4"
      ],
      [
        "0x000000000000000",
        "4"
      ],
      [
        "eb",
        "p"
      ],
      [
        "e",
        "q"
      ],
      [
        "p",
        "cmp"
      ],
      [
        "eq",
        "b"
      ],
      [
        "pcmp",
        "eqb"
      ],
      [
        "a",
        "3"
      ],
      [
        "0x00007dd733d",
        "b"
      ],
      [
        "0x00007557cc",
        "18"
      ],
      [
        "1",
        "4"
      ],
      [
        "0x00007e7d8",
        "23"
      ],
      [
        "0x00007837de",
        "80"
      ],
      [
        "0x00007847380",
        "d"
      ],
      [
        "0xffffffffffff",
        "ff"
      ],
      [
        "0x00007e85493",
        "5"
      ],
      [
        "f",
        "s"
      ],
      [
        "0x00007e694fd",
        "7"
      ],
      [
        "1",
        "9e5"
      ],
      [
        "0x00000",
        "4"
      ],
      [
        "0x00007762b88",
        "e"
      ],
      [
        "2",
        "a58"
      ],
      [
        "ff",
        "f"
      ],
      [
        "e",
        "t"
      ],
      [
        "s",
        "et"
      ],
      [
        "0x00007638c2",
        "1"
      ],
      [
        "d",
        "q"
      ],
      [
        "e",
        "s"
      ],
      [
        "o",
        "s"
      ],
      [
        "st",
        "os"
      ],
      [
        "re",
        "p"
      ],
      [
        "3",
        "f"
      ],
      [
        "mov",
        "a"
      ],
      [
        "mova",
        "ps"
      ],
      [
        "c",
        "a58"
      ],
      [
        "8",
        "4"
      ],
      [
        "3",
        "a58"
      ],
      [
        "9",
        "a58"
      ],
      [
        "a",
        "a58"
      ],
      [
        "si",
        "l"
      ],
      [
        "0x00007acf79f",
        "60"
      ],
      [
        "0x000072c5fad",
        "94"
      ],
      [
        "0x00007b64be6",
        "cb"
      ],
      [
        "0x0000712aa4a",
        "79"
      ],
      [
        "0x00007557cc18",
        "0"
      ],
      [
        "0x",
        "70"
      ],
      [
        "0x00007638c21a",
        "4"
      ],
      [
        "0x0000719086e",
        "48"
      ],
      [
        "0x00007287ef3",
        "c8"
      ],
      [
        "0x000072c5fad",
        "8"
      ],
      [
        "0x000077402446",
        "f"
      ],
      [
        "0x0000000",
        "f"
      ],
      [
        "c",
        "k"
      ],
      [
        "0x000000",
        "30"
      ],
      [
        "5",
        "3"
      ],
      [
        "5",
        "b"
      ],
      [
        "0x",
        "84"
      ],
      [
        "set",
        "z"
      ],
      [
        "mov",
        "s"
      ],
      [
        "n",
        "p"
      ],
      [
        "pu",
        "np"
      ],
      [
        "ck",
        "l"
      ],
      [
        "punp",
        "ckl"
      ],
      [
        "movs",
        "x"
      ],
      [
        "0x00000000000000",
        "3f"
      ],
      [
        "4",
        "b"
      ],
      [
        "0x00007847380",
        "c"
      ],
      [
        "0xffffff",
        "88"
      ],
      [
        "0x0000000",
        "8"
      ],
      [
        "3",
        "6"
      ],
      [
        "0x00007dc77477",
        "d"
      ],
      [
        "0x00007455c4e7",
        "7"
      ],
      [
        "0x0000741af1",
        "2"
      ],
      [
        "0x000074952ab",
        "5a"
      ],
      [
        "0x",
        "38"
      ],
      [
        "f",
        "4"
      ],
      [
        "0x00007",
        "fff"
      ],
      [
        "28",
        "0"
      ],
      [
        "movd",
        "q"
      ],
      [
        "0x0000000",
        "4"
      ],
      [
        "0x00007455c4e",
        "6"
      ],
      [
        "0x00007b64be6",
        "c"
      ],
      [
        "ff",
        "b"
      ],
      [
        "q",
        "dq"
      ],
      [
        "punpckl",
        "qdq"
      ],
      [
        "0x0",
        "5"
      ],
      [
        "0x00007837de7",
        "f"
      ],
      [
        "0x00007e7d823",
        "c"
      ],
      [
        "9",
        "b0"
      ],
      [
        "0x00007dd733d",
        "a"
      ],
      [
        "0x000074952ab",
        "4"
      ],
      [
        "0x0000719086e",
        "4"
      ],
      [
        "0x00007287ef3",
        "c"
      ],
      [
        "0x000073d90e",
        "3"
      ],
      [
        "a",
        "a"
      ],
      [
        "b",
        "d"
      ],
      [
        "1",
        "d"
      ],
      [
        "f",
        "9"
      ],
      [
        "movsx",
        "d"
      ],
      [
        "0x",
        "48"
      ],
      [
        "0x",
        "60"
      ],
      [
        "jn",
        "b"
      ],
      [
        "6",
        "140"
      ],
      [
        "movdq",
        "a"
      ],
      [
        "1",
        "f"
      ],
      [
        "mov",
        "h"
      ],
      [
        "k",
        "b"
      ],
      [
        "m",
        "s"
      ],
      [
        "p",
        "mov"
      ],
      [
        "ms",
        "kb"
      ],
      [
        "pmov",
        "mskb"
      ],
      [
        "0x00007ad029",
        "73"
      ],
      [
        "0x0",
        "6"
      ],
      [
        "xmm",
        "3"
      ],
      [
        "c",
        "mov"
      ],
      [
        "0xffffff",
        "78"
      ],
      [
        "r11",
        "d"
      ],
      [
        "0x0000774024",
        "4"
      ],
      [
        "1",
        "20"
      ],
      [
        "l",
        "pd"
      ],
      [
        "mov",
        "lpd"
      ],
      [
        "movh",
        "pd"
      ],
      [
        "0x",
        "d8"
      ],
      [
        "ad",
        "8"
      ],
      [
        "s",
        "a"
      ],
      [
        "sa",
        "r"
      ],
      [
        "0xffffffffffffff",
        "f0"
      ],
      [
        "0",
        "1"
      ],
      [
        "j",
        "b"
      ],
      [
        "0x000000000000000",
        "6"
      ],
      [
        "0x0000755",
        "7"
      ],
      [
        "0x00000000000000",
        "30"
      ],
      [
        "0x00007638c2",
        "19"
      ],
      [
        "u",
        "ps"
      ],
      [
        "mov",
        "ups"
      ],
      [
        "0x000002",
        "f8"
      ],
      [
        "0x",
        "88"
      ],
      [
        "2",
        "1"
      ],
      [
        "55",
        "0"
      ],
      [
        "0x0",
        "a"
      ],
      [
        "0x000003",
        "00"
      ],
      [
        "a",
        "5"
      ],
      [
        "a",
        "e0"
      ],
      [
        "ffb",
        "40f"
      ],
      [
        "0x000002",
        "f4"
      ],
      [
        "b",
        "8"
      ],
      [
        "c",
        "h"
      ],
      [
        "0x000000",
        "25"
      ],
      [
        "0x000002",
        "e8"
      ],
      [
        "2",
        "sd"
      ],
      [
        "c",
        "v"
      ],
      [
        "t",
        "si"
      ],
      [
        "0x000002",
        "fc"
      ],
      [
        "cv",
        "tsi"
      ],
      [
        "cvtsi",
        "2sd"
      ],
      [
        "47",
        "8"
      ],
      [
        "0x000003",
        "10"
      ],
      [
        "p",
        "sub"
      ],
      [
        "0x0000",
        "ffff"
      ],
      [
        "0x0",
        "3"
      ],
      [
        "psub",
        "b"
      ],
      [
        "7",
        "80"
      ],
      [
        "0x00007bf25e",
        "46"
      ],
      [
        "0x0000712aa4a",
        "6"
      ],
      [
        "2",
        "20"
      ],
      [
        "b",
        "s"
      ],
      [
        "r8",
        "l"
      ],
      [
        "0x00000000000000",
        "38"
      ],
      [
        "1",
        "c"
      ],
      [
        "0xffffff",
        "d0"
      ],
      [
        "5a",
        "0"
      ],
      [
        "0xffffff",
        "f0"
      ],
      [
        "0x00000000000000",
        "20"
      ],
      [
        "bs",
        "f"
      ],
      [
        "n",
        "z"
      ],
      [
        "0x00007acd6e47",
        "ca58"
      ],
      [
        "0x00007da9a82b",
        "ca58"
      ],
      [
        "0x0000741af12c",
        "aa58"
      ],
      [
        "0x00007e7d823d",
        "aa58"
      ],
      [
        "0x00007bf25e47",
        "9a58"
      ],
      [
        "0x000073d90e34",
        "9a58"
      ],
      [
        "0x00007bc75cef",
        "2a58"
      ],
      [
        "0x00007bfcbbc8",
        "3a58"
      ],
      [
        "0x00007ad02974",
        "3a58"
      ],
      [
        "0x00007dd733db",
        "2a58"
      ],
      [
        "0x00007837de80",
        "1a58"
      ],
      [
        "0x00007847380d",
        "1a58"
      ],
      [
        "0x00007e854935",
        "1a58"
      ],
      [
        "0x00007e694fd7",
        "1a58"
      ],
      [
        "0x00007762b88e",
        "1a58"
      ],
      [
        "0x00007acf79f60",
        "a58"
      ],
      [
        "0x000072c5fad94",
        "a58"
      ],
      [
        "0x00007b64be6cb",
        "a58"
      ],
      [
        "0x0000712aa4a79",
        "a58"
      ],
      [
        "0x00007557cc180",
        "a58"
      ],
      [
        "0x00007638c21a4",
        "a58"
      ],
      [
        "0x0000719086e48",
        "a58"
      ],
      [
        "0x00007287ef3c8",
        "a58"
      ],
      [
        "0x000077402446f",
        "a58"
      ],
      [
        "0x00007dc77477d",
        "a58"
      ],
      [
        "0x00007455c4e77",
        "a58"
      ],
      [
        "0x000074952ab5a",
        "a58"
      ],
      [
        "0xffffff",
        "48"
      ],
      [
        "c",
        "dfe"
      ],
      [
        "0xffff",
        "fb"
      ],
      [
        "0x0000719086e",
        "3"
      ],
      [
        "0x000000000000000",
        "2"
      ],
      [
        "2",
        "9e5"
      ],
      [
        "j",
        "s"
      ],
      [
        "0x0",
        "c"
      ],
      [
        "e",
        "4"
      ],
      [
        "b",
        "6"
      ],
      [
        "0x00007b64be6",
        "b"
      ],
      [
        "0x0000031",
        "c"
      ],
      [
        "0x000004",
        "10"
      ],
      [
        "5",
        "33"
      ],
      [
        "0x00007bf25e",
        "4"
      ],
      [
        "0x00007acd6e47",
        "c"
      ],
      [
        "0x00007bf25e47",
        "9"
      ],
      [
        "0x000073d90e34",
        "9"
      ],
      [
        "0x00007da9a82b",
        "c"
      ],
      [
        "3",
        "fb40f"
      ],
      [
        "3",
        "9e5"
      ],
      [
        "a",
        "9e5"
      ],
      [
        "2",
        "7"
      ],
      [
        "550",
        "b"
      ],
      [
        "0x00007b64",
        "b"
      ],
      [
        "7",
        "20"
      ],
      [
        "0x00007847380",
        "cb"
      ],
      [
        "0x00007ad0297",
        "3d"
      ],
      [
        "0x00007837de7",
        "fb"
      ],
      [
        "0x00000",
        "8"
      ],
      [
        "0x00007dd733d",
        "ac"
      ],
      [
        "0x00007ad0",
        "28"
      ],
      [
        "0x00007dc7",
        "73"
      ],
      [
        "0x00007847",
        "37"
      ],
      [
        "0x00007acd",
        "6"
      ],
      [
        "0x00007da9",
        "a"
      ],
      [
        "0x0000741a",
        "f0"
      ],
      [
        "0x00007837",
        "d"
      ],
      [
        "0x00007557",
        "cb"
      ],
      [
        "c7",
        "d"
      ],
      [
        "d",
        "a8"
      ],
      [
        "64",
        "1"
      ],
      [
        "0x000074952ab",
        "54"
      ],
      [
        "0x00007e694fd6",
        "b"
      ],
      [
        "0x00007e854934",
        "b"
      ],
      [
        "0x00007762b88d",
        "b"
      ],
      [
        "0x000072c5fad",
        "88"
      ],
      [
        "0x00007acd6e47",
        "0"
      ],
      [
        "0x00007da9a82b",
        "0"
      ],
      [
        "0x000073d90e3",
        "3d"
      ],
      [
        "0x0000741af12",
        "be"
      ],
      [
        "7",
        "4"
      ],
      [
        "d",
        "6"
      ],
      [
        "0x0000712aa4a",
        "73"
      ],
      [
        "0x",
        "58"
      ],
      [
        "0x00007e7d823d",
        "4"
      ],
      [
        "0x0000741af12c",
        "4"
      ],
      [
        "xmm",
        "4"
      ],
      [
        "0xffffff",
        "68"
      ],
      [
        "f1",
        "40"
      ],
      [
        "1a",
        "00"
      ],
      [
        "3",
        "a"
      ],
      [
        "2a",
        "0"
      ],
      [
        "6",
        "c"
      ],
      [
        "19",
        "d0"
      ],
      [
        "2",
        "14"
      ],
      [
        "19",
        "da8"
      ],
      [
        "0x00007bc75cee",
        "c"
      ],
      [
        "0x000077402446",
        "9"
      ],
      [
        "0x00007638c21",
        "9e"
      ],
      [
        "0x000073d90e",
        "33"
      ],
      [
        "e",
        "c"
      ],
      [
        "0x0000741af1",
        "2b"
      ],
      [
        "1a",
        "3"
      ],
      [
        "0x00007bfcbbc7",
        "d"
      ],
      [
        "0x00007acd6e47",
        "6"
      ],
      [
        "0x00007da9a82b",
        "6"
      ],
      [
        "d",
        "70"
      ],
      [
        "0x00007638c21",
        "98"
      ],
      [
        "0x",
        "5c"
      ],
      [
        "0x0",
        "9"
      ],
      [
        "0x00007bc75cee",
        "6"
      ],
      [
        "0x00007dd733da",
        "6"
      ],
      [
        "0x00007acf79f",
        "5a"
      ],
      [
        "2",
        "d"
      ],
      [
        "0x00007455c4e6",
        "b"
      ],
      [
        "0xffffff",
        "60"
      ],
      [
        "5",
        "2"
      ],
      [
        "0x00007acf79f",
        "54"
      ],
      [
        "0x00007837de",
        "8"
      ],
      [
        "x",
        "ch"
      ],
      [
        "xch",
        "g"
      ],
      [
        "1a",
        "70"
      ],
      [
        "0x00007e7d823c",
        "e"
      ],
      [
        "0x000074952ab4",
        "e"
      ],
      [
        "0x000072c5fad8",
        "e"
      ],
      [
        "f",
        "3"
      ],
      [
        "00",
        "0"
      ],
      [
        "0xffffff",
        "80"
      ],
      [
        "0x00000",
        "120"
      ],
      [
        "cmov",
        "nz"
      ],
      [
        "0x00007bf25e47",
        "3"
      ],
      [
        "0x000073d90e34",
        "3"
      ],
      [
        "0x",
        "ff"
      ],
      [
        "0x000000000000000",
        "7"
      ],
      [
        "0xffffff",
        "70"
      ],
      [
        "0xff",
        "f1"
      ],
      [
        "7",
        "6"
      ],
      [
        "1",
        "fb40f"
      ],
      [
        "0x00007e854",
        "8"
      ],
      [
        "0x0000712a",
        "a3"
      ],
      [
        "0x00007287",
        "ee"
      ],
      [
        "0x00007287ef3",
        "bc"
      ],
      [
        "34",
        "8"
      ],
      [
        "0x00007455c4e7",
        "1"
      ],
      [
        "0x000071908",
        "6"
      ],
      [
        "7",
        "e"
      ],
      [
        "0x00007bf25e46",
        "d"
      ],
      [
        "0x0000712aa4a6",
        "d"
      ],
      [
        "a",
        "e8"
      ],
      [
        "4",
        "c"
      ],
      [
        "2",
        "38"
      ],
      [
        "0x000000000000000",
        "9"
      ],
      [
        "0x00007e694",
        "f0"
      ],
      [
        "0x00007740",
        "238"
      ],
      [
        "0x00007bf25",
        "d8"
      ],
      [
        "0x000072c5f",
        "a0"
      ],
      [
        "0x00007bfcb",
        "b0"
      ],
      [
        "0x00007dd73",
        "30"
      ],
      [
        "0x00007acd6",
        "d8"
      ],
      [
        "9",
        "9"
      ],
      [
        "0x00007b64be6c",
        "5"
      ],
      [
        "0x00007557cc17",
        "4"
      ],
      [
        "0xffffff",
        "58"
      ],
      [
        "0x00007e7d8",
        "1a"
      ],
      [
        "5",
        "1a"
      ],
      [
        "0xffffffffffffff",
        "f8"
      ],
      [
        "0x0000719086e3",
        "c"
      ],
      [
        "0x0000774024",
        "47"
      ],
      [
        "40",
        "3"
      ],
      [
        "0x00007762b",
        "7c"
      ],
      [
        "1",
        "50"
      ],
      [
        "33",
        "1"
      ],
      [
        "0x",
        "14"
      ],
      [
        "di",
        "v"
      ],
      [
        "3",
        "40"
      ],
      [
        "a4",
        "4"
      ],
      [
        "0x",
        "1c"
      ],
      [
        "7",
        "2"
      ],
      [
        "ac",
        "0"
      ],
      [
        "0x00000000000000",
        "1f"
      ],
      [
        "0x0",
        "f"
      ],
      [
        "0x00007557cc17",
        "a"
      ],
      [
        "a",
        "40"
      ],
      [
        "ac",
        "80"
      ],
      [
        "fb",
        "0"
      ],
      [
        "l",
        "dq"
      ],
      [
        "0x",
        "e0"
      ],
      [
        "0x000008",
        "60"
      ],
      [
        "b",
        "4"
      ],
      [
        "0xffffff",
        "ef"
      ],
      [
        "2",
        "2"
      ],
      [
        "4b",
        "6"
      ],
      [
        "0x000000000000",
        "0"
      ],
      [
        "0x00000000000000",
        "25"
      ],
      [
        "f",
        "d8"
      ],
      [
        "0x00007b64be6b",
        "f"
      ],
      [
        "c",
        "e"
      ],
      [
        "0x00007638c",
        "14"
      ],
      [
        "0x",
        "f8"
      ],
      [
        "0x00000",
        "30"
      ],
      [
        "1a3",
        "c8"
      ],
      [
        "4b",
        "7"
      ],
      [
        "4",
        "e"
      ],
      [
        "0x",
        "f0"
      ],
      [
        "5",
        "6"
      ],
      [
        "0x",
        "98"
      ],
      [
        "0x0000030",
        "8"
      ],
      [
        "0x0000784737",
        "4"
      ],
      [
        "0x00007557cb",
        "4"
      ],
      [
        "0x00000",
        "348"
      ],
      [
        "0x00007b64b",
        "da"
      ],
      [
        "0x00007837d",
        "da"
      ],
      [
        "0x0000719086e",
        "3d"
      ],
      [
        "0x0000712aa4a",
        "6e"
      ],
      [
        "0x00007bf25e4",
        "6e"
      ],
      [
        "1",
        "d0"
      ],
      [
        "0x000003",
        "e4"
      ],
      [
        "0xfffffb",
        "98"
      ],
      [
        "0x00007dc77477",
        "1"
      ],
      [
        "7",
        "140"
      ],
      [
        "1",
        "140"
      ],
      [
        "9",
        "140"
      ],
      [
        "0x00007495",
        "29"
      ],
      [
        "0x000074952ab",
        "5"
      ],
      [
        "b",
        "00"
      ],
      [
        "b",
        "9"
      ],
      [
        "0x",
        "6"
      ],
      [
        "18",
        "a"
      ],
      [
        "de",
        "c"
      ],
      [
        "0x0000",
        "150"
      ],
      [
        "0x0000150",
        "5"
      ],
      [
        "0x0000719086e4",
        "23"
      ],
      [
        "0x00007287ef3c",
        "23"
      ],
      [
        "5",
        "58"
      ],
      [
        "0x00007acf79f",
        "55"
      ],
      [
        "0x00007b64be6",
        "c0"
      ],
      [
        "0x00007ad0297",
        "38"
      ],
      [
        "0x00007dc77477",
        "73"
      ],
      [
        "0x00007acf",
        "7"
      ],
      [
        "2a",
        "f"
      ],
      [
        "23",
        "e"
      ],
      [
        "0x00007bfcbbc7",
        "7"
      ],
      [
        "0x00007ad02973",
        "7"
      ],
      [
        "r9",
        "l"
      ],
      [
        "0x00000",
        "80"
      ],
      [
        "d",
        "5"
      ],
      [
        "0x0000080",
        "4"
      ],
      [
        "0xffffff",
        "50"
      ],
      [
        "0x000004",
        "18"
      ],
      [
        "3d",
        "fe"
      ],
      [
        "fb",
        "403"
      ],
      [
        "fb",
        "331"
      ],
      [
        "5",
        "18"
      ],
      [
        "5",
        "dfe"
      ],
      [
        "2a",
        "00"
      ],
      [
        "0x00007740244",
        "64"
      ],
      [
        "7",
        "dfe"
      ],
      [
        "fd",
        "fe"
      ],
      [
        "e",
        "dfe"
      ],
      [
        "4",
        "dfe"
      ],
      [
        "0x0000712aa4",
        "a8"
      ],
      [
        "6",
        "6"
      ],
      [
        "0x00007acd6e",
        "48"
      ],
      [
        "0xffff",
        "fd"
      ],
      [
        "0x0000000",
        "7"
      ],
      [
        "6",
        "9"
      ],
      [
        "0x00007287ef",
        "3d"
      ],
      [
        "0x00007acd6e",
        "4"
      ],
      [
        "0xffffff",
        "f9"
      ],
      [
        "0xffffff",
        "b8"
      ],
      [
        "0x00000000000000",
        "1d"
      ],
      [
        "jn",
        "l"
      ],
      [
        "0x000004",
        "20"
      ],
      [
        "a9",
        "d0"
      ],
      [
        "6",
        "40"
      ],
      [
        "2c",
        "0"
      ],
      [
        "78",
        "d"
      ],
      [
        "c",
        "movz"
      ],
      [
        "0x00007455c4",
        "e8"
      ],
      [
        "0x00007bf25e",
        "48"
      ],
      [
        "1d",
        "f"
      ],
      [
        "2",
        "f"
      ],
      [
        "73",
        "7"
      ],
      [
        "0x",
        "78"
      ],
      [
        "2",
        "40"
      ],
      [
        "0x00007287ef3",
        "bd"
      ],
      [
        "0x00007bfcbbc7",
        "8"
      ],
      [
        "0x00007455c4e6",
        "c"
      ],
      [
        "0x000073d90e33",
        "e"
      ],
      [
        "a",
        "54"
      ],
      [
        "36",
        "2"
      ],
      [
        "fd",
        "1"
      ],
      [
        "2a",
        "8"
      ],
      [
        "0x00007da9a",
        "7"
      ],
      [
        "7",
        "fb40f"
      ],
      [
        "b",
        "fb40f"
      ],
      [
        "fb",
        "4b7"
      ],
      [
        "0x0000741af12c",
        "a9e5"
      ],
      [
        "0x00007e7d823d",
        "a9e5"
      ],
      [
        "0x00007bc75cef",
        "29e5"
      ],
      [
        "0x00007bfcbbc8",
        "39e5"
      ],
      [
        "0x00007ad02974",
        "39e5"
      ],
      [
        "0x00007dd733db",
        "29e5"
      ],
      [
        "0x00007837de80",
        "19e5"
      ],
      [
        "0x00007847380d",
        "19e5"
      ],
      [
        "0x00007e854935",
        "19e5"
      ],
      [
        "0x00007e694fd7",
        "19e5"
      ],
      [
        "0x00007762b88e",
        "19e5"
      ],
      [
        "0x00007acf79f60",
        "9e5"
      ],
      [
        "0x000072c5fad94",
        "9e5"
      ],
      [
        "0x00007b64be6cb",
        "9e5"
      ],
      [
        "0x0000712aa4a79",
        "9e5"
      ],
      [
        "0x00007557cc180",
        "9e5"
      ],
      [
        "0x00007638c21a4",
        "9e5"
      ],
      [
        "0x0000719086e48",
        "9e5"
      ],
      [
        "0x00007287ef3c8",
        "9e5"
      ],
      [
        "0x000077402446f",
        "9e5"
      ],
      [
        "0x00007dc77477d",
        "9e5"
      ],
      [
        "0x00007455c4e77",
        "9e5"
      ],
      [
        "0x000074952ab5a",
        "9e5"
      ],
      [
        "0x00007acd6e47c",
        "9e5"
      ],
      [
        "0x00007bf25e479",
        "9e5"
      ],
      [
        "0x000073d90e349",
        "9e5"
      ],
      [
        "0x00007da9a82bc",
        "9e5"
      ],
      [
        "3",
        "60"
      ],
      [
        "0x0000000",
        "5"
      ],
      [
        "1",
        "ac80"
      ],
      [
        "a44",
        "95"
      ],
      [
        "0x00007da9a8",
        "2c"
      ],
      [
        "36",
        "6"
      ],
      [
        "0x00000000000000",
        "22"
      ],
      [
        "0x000073d90",
        "d"
      ],
      [
        "1",
        "9e"
      ],
      [
        "jnl",
        "e"
      ],
      [
        "9",
        "3"
      ],
      [
        "a4",
        "2"
      ],
      [
        "3",
        "a8"
      ],
      [
        "2a",
        "3"
      ],
      [
        "0x",
        "17"
      ],
      [
        "0x0000712aa3",
        "ea"
      ],
      [
        "0x0000749529",
        "ea"
      ],
      [
        "e",
        "g"
      ],
      [
        "n",
        "eg"
      ],
      [
        "2",
        "00"
      ],
      [
        "l",
        "ldq"
      ],
      [
        "ps",
        "lldq"
      ],
      [
        "9",
        "fc"
      ],
      [
        "0x000077402446",
        "3"
      ],
      [
        "47",
        "4e"
      ],
      [
        "0x6",
        "474e"
      ],
      [
        "4",
        "4"
      ],
      [
        "0x00007ad02974",
        "3"
      ],
      [
        "0x00007bfcbbc8",
        "3"
      ],
      [
        "4",
        "5"
      ],
      [
        "0x",
        "24"
      ],
      [
        "0xffffff",
        "fe"
      ],
      [
        "2a",
        "48"
      ],
      [
        "0x00007dc7747",
        "8"
      ],
      [
        "2",
        "ff"
      ],
      [
        "9",
        "c"
      ],
      [
        "0x00007557cc17",
        "5"
      ],
      [
        "ff",
        "d"
      ],
      [
        "5",
        "00"
      ],
      [
        "c",
        "pu"
      ],
      [
        "i",
        "d"
      ],
      [
        "cpu",
        "id"
      ],
      [
        "0x0000712aa4a",
        "7"
      ],
      [
        "3",
        "10"
      ],
      [
        "9",
        "c4"
      ],
      [
        "0x00007acf79f",
        "5"
      ],
      [
        "0x00007455c4",
        "2a"
      ],
      [
        "0x00007bc75c",
        "2a"
      ],
      [
        "0x00007acf79",
        "2a"
      ],
      [
        "0x0000719086",
        "2a"
      ],
      [
        "27",
        "4b"
      ],
      [
        "0x00007b64be6",
        "d"
      ],
      [
        "2a",
        "38"
      ],
      [
        "88",
        "8"
      ],
      [
        "a",
        "1a70"
      ],
      [
        "0x00007acf79f",
        "6"
      ],
      [
        "0x00007dc77477",
        "2"
      ],
      [
        "3",
        "3d"
      ],
      [
        "a",
        "b0"
      ],
      [
        "a9",
        "8"
      ],
      [
        "0x00007b64be",
        "6e"
      ],
      [
        "3",
        "f0"
      ],
      [
        "0x00007287ef3",
        "b"
      ],
      [
        "2b",
        "0"
      ],
      [
        "88",
        "0"
      ],
      [
        "3",
        "58"
      ],
      [
        "bd",
        "d"
      ],
      [
        "0x",
        "4c"
      ],
      [
        "3",
        "b0"
      ],
      [
        "2",
        "de"
      ],
      [
        "21",
        "500"
      ],
      [
        "6",
        "b0"
      ],
      [
        "3",
        "90"
      ],
      [
        "72",
        "f9"
      ],
      [
        "d",
        "7e"
      ],
      [
        "0x000000",
        "47"
      ],
      [
        "0x00000",
        "888"
      ],
      [
        "0x00007ad0",
        "25"
      ],
      [
        "0x000073d90",
        "9"
      ],
      [
        "0x00007e854",
        "4"
      ],
      [
        "0x00007bc7",
        "58"
      ],
      [
        "0x00007dd",
        "72f9"
      ],
      [
        "0x00007dc7",
        "70"
      ],
      [
        "0x00007495",
        "26"
      ],
      [
        "0x00007e694",
        "b9"
      ],
      [
        "0x00007740",
        "20"
      ],
      [
        "0x00007bf25",
        "a"
      ],
      [
        "0x00007e7",
        "d7e"
      ],
      [
        "0x0000712a",
        "a0"
      ],
      [
        "0x000071908",
        "2b"
      ],
      [
        "0x000072c5f",
        "69"
      ],
      [
        "0x00007da9",
        "a3"
      ],
      [
        "0x00007455",
        "c0"
      ],
      [
        "0x0000741a",
        "ec"
      ],
      [
        "0x00007837",
        "da"
      ],
      [
        "0x00007bfcb",
        "79"
      ],
      [
        "0x00007287",
        "ea"
      ],
      [
        "0x00007acd",
        "6a"
      ],
      [
        "0x00007b64b",
        "a3"
      ],
      [
        "214",
        "fc"
      ],
      [
        "0x00007acf7",
        "5b"
      ],
      [
        "0x00007847",
        "33d"
      ],
      [
        "0x00007638",
        "bdd"
      ],
      [
        "0x00007557",
        "c7d"
      ],
      [
        "0x00007762b",
        "45"
      ],
      [
        "0x",
        "80"
      ],
      [
        "0x0000741af0",
        "6a"
      ],
      [
        "0x00007e8548",
        "6a"
      ],
      [
        "0x00007287ee",
        "6a"
      ],
      [
        "0x00007da9a7",
        "6a"
      ],
      [
        "0x000073d90d",
        "6a"
      ],
      [
        "5",
        "9"
      ],
      [
        "0x00007557cc",
        "1"
      ],
      [
        "0x00",
        "01"
      ],
      [
        "3",
        "70"
      ],
      [
        "27",
        "e8"
      ],
      [
        "a",
        "50"
      ],
      [
        "5",
        "d"
      ],
      [
        "0xffffff",
        "fc"
      ],
      [
        "cmov",
        "b"
      ],
      [
        "2",
        "50"
      ],
      [
        "29",
        "d0"
      ],
      [
        "a",
        "a00"
      ],
      [
        "6",
        "24"
      ],
      [
        "b",
        "58"
      ],
      [
        "d",
        "c"
      ],
      [
        "1a",
        "4"
      ],
      [
        "1",
        "e"
      ],
      [
        "0x00007b64",
        "bd"
      ],
      [
        "jl",
        "e"
      ],
      [
        "set",
        "nz"
      ],
      [
        "6c",
        "d"
      ],
      [
        "9e",
        "d"
      ],
      [
        "f",
        "7"
      ],
      [
        "2",
        "78"
      ],
      [
        "a4",
        "6cd"
      ],
      [
        "18",
        "8"
      ],
      [
        "0x00007acf79",
        "f8"
      ],
      [
        "8",
        "90"
      ],
      [
        "0x00007762b",
        "890"
      ],
      [
        "b",
        "l"
      ],
      [
        "5",
        "1"
      ],
      [
        "1",
        "1"
      ],
      [
        "0x0000712aa4",
        "a9"
      ],
      [
        "movdq",
        "u"
      ],
      [
        "2",
        "e"
      ],
      [
        "9",
        "f"
      ],
      [
        "d",
        "28"
      ],
      [
        "0x00007e694",
        "fd8"
      ],
      [
        "0x00007bc75c",
        "f0"
      ],
      [
        "7",
        "ffff"
      ],
      [
        "00",
        "8"
      ],
      [
        "0x00007ad028",
        "aa"
      ],
      [
        "0x00007dc773",
        "aa"
      ],
      [
        "0xffff",
        "fe"
      ],
      [
        "0x0",
        "e"
      ],
      [
        "0x00000",
        "1"
      ],
      [
        "0x0000031",
        "d"
      ],
      [
        "7",
        "7"
      ],
      [
        "3",
        "2"
      ],
      [
        "18",
        "0"
      ],
      [
        "0xffffffffffffff",
        "fd"
      ],
      [
        "0x000073d90e",
        "36"
      ],
      [
        "0x00000",
        "fff"
      ],
      [
        "0x00000000",
        "7ffff"
      ],
      [
        "cmov",
        "n"
      ],
      [
        "0x000000007ffff",
        "ffd"
      ],
      [
        "0x00007acd6e47",
        "1140"
      ],
      [
        "0x00007da9a82b",
        "1140"
      ],
      [
        "0x00007762b88d",
        "6140"
      ],
      [
        "0x00007e694fd6",
        "6140"
      ],
      [
        "0x00007e854934",
        "6140"
      ],
      [
        "0x00007bc75cee",
        "7140"
      ],
      [
        "0x000072c5fad8",
        "9140"
      ],
      [
        "0x00007847380c",
        "6140"
      ],
      [
        "0x00007837de7f",
        "6140"
      ],
      [
        "0x00007e7d823c",
        "f140"
      ],
      [
        "0x00007dd733da",
        "7140"
      ],
      [
        "0x000074952ab4",
        "f140"
      ],
      [
        "0x00007638c219",
        "9140"
      ],
      [
        "0x0000741af12b",
        "f140"
      ],
      [
        "0x0000719086e3d",
        "140"
      ],
      [
        "0x0000712aa4a6e",
        "140"
      ],
      [
        "0x00007bf25e46e",
        "140"
      ],
      [
        "0x00007acf79f55",
        "140"
      ],
      [
        "0x00007b64be6c0",
        "140"
      ],
      [
        "0x00007ad029738",
        "140"
      ],
      [
        "0x0000774024464",
        "140"
      ],
      [
        "0x00007287ef3bd",
        "140"
      ],
      [
        "0x00007bfcbbc78",
        "140"
      ],
      [
        "0x00007455c4e6c",
        "140"
      ],
      [
        "0x000073d90e33e",
        "140"
      ],
      [
        "0x00007557cc175",
        "140"
      ],
      [
        "0x00007dc774772",
        "140"
      ],
      [
        "a",
        "6"
      ],
      [
        "a",
        "h"
      ],
      [
        "0xffffff",
        "20"
      ],
      [
        "0x000072c5fad",
        "9"
      ],
      [
        "48",
        "9"
      ],
      [
        "eb",
        "0"
      ],
      [
        "0x00007da9a8",
        "2d"
      ],
      [
        "c",
        "f"
      ],
      [
        "p",
        "or"
      ],
      [
        "0x000000",
        "20"
      ],
      [
        "0x00007bc75c",
        "f1"
      ],
      [
        "0x000074952ab",
        "55"
      ],
      [
        "0x00007dc77477",
        "8"
      ],
      [
        "e",
        "d"
      ],
      [
        "0x00007acf79f",
        "5b"
      ],
      [
        "ad",
        "fe"
      ],
      [
        "f",
        "a8"
      ],
      [
        "0x00007bc75cee",
        "d"
      ],
      [
        "0x00007740244",
        "9"
      ],
      [
        "0x00007b64be6c",
        "6"
      ],
      [
        "0x00007557cc17",
        "b"
      ],
      [
        "0x0000741af12",
        "d"
      ],
      [
        "0x00007837de7",
        "fc"
      ],
      [
        "0x0000712aa4a",
        "74"
      ],
      [
        "2",
        "dfe"
      ],
      [
        "0x00007dd733d",
        "add"
      ],
      [
        "6e",
        "6"
      ],
      [
        "0x00007acd6e47",
        "7dfe"
      ],
      [
        "0x00007da9a82b",
        "7dfe"
      ],
      [
        "0x000077402446",
        "adfe"
      ],
      [
        "0x0000741af12c",
        "5dfe"
      ],
      [
        "0x00007e7d823d",
        "5dfe"
      ],
      [
        "0x00007bf25e47",
        "4dfe"
      ],
      [
        "0x000073d90e34",
        "4dfe"
      ],
      [
        "0x00007455c4e7",
        "2dfe"
      ],
      [
        "0x00007bfcbbc7",
        "edfe"
      ],
      [
        "0x00007762b88d",
        "cdfe"
      ],
      [
        "0x00007e694fd6",
        "cdfe"
      ],
      [
        "0x00007e854934",
        "cdfe"
      ],
      [
        "0x000072c5fad8",
        "fdfe"
      ],
      [
        "0x00007847380c",
        "cdfe"
      ],
      [
        "0x0000719086e4",
        "3dfe"
      ],
      [
        "0x00007ad02973",
        "edfe"
      ],
      [
        "0x00007638c219",
        "fdfe"
      ],
      [
        "0x00007847380cb",
        "318"
      ],
      [
        "0x00007847380cb",
        "334"
      ],
      [
        "0x00007ad02973d",
        "318"
      ],
      [
        "0x00007ad02973d",
        "334"
      ],
      [
        "0x00007837de7fb",
        "318"
      ],
      [
        "0x00007dd733dac",
        "318"
      ],
      [
        "0x00007dd733dac",
        "334"
      ],
      [
        "0x000074952ab54",
        "318"
      ],
      [
        "0x000074952ab54",
        "334"
      ],
      [
        "0x00007e694fd6b",
        "318"
      ],
      [
        "0x00007e694fd6b",
        "334"
      ],
      [
        "0x00007e854934b",
        "318"
      ],
      [
        "0x00007e854934b",
        "334"
      ],
      [
        "0x00007762b88db",
        "318"
      ],
      [
        "0x0000712aa4a73",
        "318"
      ],
      [
        "0x0000712aa4a73",
        "334"
      ],
      [
        "0x00007e7d823d4",
        "318"
      ],
      [
        "0x00007e7d823d4",
        "334"
      ],
      [
        "0x0000741af12c4",
        "318"
      ],
      [
        "0x00007bc75ceec",
        "318"
      ],
      [
        "0x00007bc75ceec",
        "334"
      ],
      [
        "0x0000774024469",
        "318"
      ],
      [
        "0x0000774024469",
        "334"
      ],
      [
        "0x00007638c219e",
        "318"
      ],
      [
        "0x00007bfcbbc7d",
        "318"
      ],
      [
        "0x00007acd6e476",
        "318"
      ],
      [
        "0x00007acd6e476",
        "334"
      ],
      [
        "0x00007da9a82b6",
        "318"
      ],
      [
        "0x00007acf79f5a",
        "318"
      ],
      [
        "0x00007acf79f5a",
        "334"
      ],
      [
        "0x000072c5fad8e",
        "318"
      ],
      [
        "0x00007bf25e473",
        "318"
      ],
      [
        "0x00007bf25e473",
        "334"
      ],
      [
        "0x000073d90e343",
        "318"
      ],
      [
        "0x000073d90e343",
        "334"
      ],
      [
        "0x00007455c4e71",
        "318"
      ],
      [
        "0x00007b64be6c5",
        "318"
      ],
      [
        "0x00007557cc17a",
        "318"
      ],
      [
        "0x0000719086e423",
        "18"
      ],
      [
        "0x0000719086e423",
        "34"
      ],
      [
        "0x00007287ef3c23",
        "18"
      ],
      [
        "0x00007287ef3c23",
        "34"
      ],
      [
        "0x00007dc7747773",
        "18"
      ],
      [
        "0x00007dc7747773",
        "34"
      ],
      [
        "0x000074952ab55",
        "dfe"
      ],
      [
        "0x00007dc774778",
        "dfe"
      ],
      [
        "0x00007acf79f5b",
        "dfe"
      ],
      [
        "0x00007bc75ceed",
        "dfe"
      ],
      [
        "0x00007b64be6c6",
        "dfe"
      ],
      [
        "0x00007557cc17b",
        "dfe"
      ],
      [
        "0x00007837de7fc",
        "dfe"
      ],
      [
        "0x0000712aa4a74",
        "dfe"
      ],
      [
        "0x00007dd733dadd",
        "fe"
      ],
      [
        "0x00007dd733d",
        "c"
      ],
      [
        "0x00007287ef3c",
        "3dfe"
      ],
      [
        "0x00007837de7fb",
        "334"
      ],
      [
        "0x00007762b88db",
        "334"
      ],
      [
        "0x0000741af12c4",
        "334"
      ],
      [
        "0x00007638c219e",
        "334"
      ],
      [
        "0x00007bfcbbc7d",
        "334"
      ],
      [
        "0x00007da9a82b6",
        "334"
      ],
      [
        "0x000072c5fad8e",
        "334"
      ],
      [
        "0x00007455c4e71",
        "334"
      ],
      [
        "0x00007b64be6c5",
        "334"
      ],
      [
        "0x00007557cc17a",
        "334"
      ],
      [
        "e",
        "e8"
      ],
      [
        "a3",
        "b"
      ],
      [
        "0x0000000",
        "6"
      ],
      [
        "0",
        "2"
      ],
      [
        "1",
        "2"
      ],
      [
        "de",
        "8"
      ],
      [
        "0x000074952ab",
        "6"
      ],
      [
        "64",
        "4"
      ],
      [
        "5",
        "780"
      ],
      [
        "a",
        "20"
      ],
      [
        "0x00007dc77477",
        "7"
      ],
      [
        "0x000073d90",
        "d6"
      ],
      [
        "0x00000000000000",
        "28"
      ],
      [
        "0x000000000000000",
        "f"
      ],
      [
        "c7",
        "0"
      ],
      [
        "3d",
        "0"
      ],
      [
        "0x00007bf25e4",
        "9"
      ],
      [
        "3d",
        "8"
      ],
      [
        "0x00007847380",
        "e"
      ],
      [
        "9",
        "6"
      ],
      [
        "a4",
        "8"
      ],
      [
        "d0",
        "9"
      ],
      [
        "d",
        "h"
      ],
      [
        "214",
        "d8"
      ],
      [
        "0x0000000000000",
        "3"
      ],
      [
        "80",
        "2"
      ],
      [
        "0x00007ad028",
        "a"
      ],
      [
        "0x00007dc773",
        "a"
      ],
      [
        "0x00007ad025",
        "3fb40f"
      ],
      [
        "0x000073d909",
        "ffb40f"
      ],
      [
        "0x00007e8544",
        "ffb40f"
      ],
      [
        "0x00007bc758",
        "bfb40f"
      ],
      [
        "0x00007dd72f9",
        "fb40f"
      ],
      [
        "0x00007dc770",
        "3fb40f"
      ],
      [
        "0x0000749526",
        "7fb40f"
      ],
      [
        "0x00007e694b9",
        "fb40f"
      ],
      [
        "0x0000774020",
        "1fb40f"
      ],
      [
        "0x00007bf25a",
        "1fb40f"
      ],
      [
        "0x00007e7d7e",
        "3fb40f"
      ],
      [
        "0x0000712aa0",
        "7fb40f"
      ],
      [
        "0x0000719082b",
        "fb40f"
      ],
      [
        "0x000072c5f69",
        "fb40f"
      ],
      [
        "0x00007da9a3",
        "ffb40f"
      ],
      [
        "0x00007455c0",
        "bfb40f"
      ],
      [
        "0x0000741aec",
        "ffb40f"
      ],
      [
        "0x00007837da",
        "3fb40f"
      ],
      [
        "0x00007bfcb79",
        "fb40f"
      ],
      [
        "0x00007287ea",
        "ffb40f"
      ],
      [
        "0x00007acd6a",
        "1fb40f"
      ],
      [
        "0x00007b64ba3",
        "fb40f"
      ],
      [
        "0x00007acf75b",
        "fb40f"
      ],
      [
        "0x0000784733d",
        "fb40f"
      ],
      [
        "0x00007638bdd",
        "fb40f"
      ],
      [
        "0x00007557c7d",
        "fb40f"
      ],
      [
        "0x00007762b45",
        "fb40f"
      ],
      [
        "d",
        "d8"
      ],
      [
        "0x00007da9a",
        "76"
      ],
      [
        "c",
        "eb0"
      ],
      [
        "0x",
        "7c"
      ],
      [
        "0xffffff",
        "90"
      ],
      [
        "0x00007ad0297",
        "6"
      ],
      [
        "0x0000741af0",
        "6"
      ],
      [
        "0x00007e8548",
        "6"
      ],
      [
        "0x00007287ee",
        "6"
      ],
      [
        "a0",
        "6"
      ],
      [
        "b",
        "70"
      ],
      [
        "23",
        "0"
      ],
      [
        "0x000000000000000",
        "c"
      ],
      [
        "0x0000000000000",
        "fff"
      ],
      [
        "cmovn",
        "be"
      ],
      [
        "a5",
        "1a"
      ],
      [
        "c",
        "d"
      ],
      [
        "55",
        "a0"
      ],
      [
        "s",
[...]
